{
  "version": "1.0",
  "truncation": null,
  "padding": null,
  "added_tokens": [
    {
      "id": 0,
      "content": "<|endoftext|>",
      "single_word": false,
      "lstrip": false,
      "rstrip": false,
      "normalized": false,
      "special": true
    },
    {
      "id": 1,
      "content": "<|system|>",
      "single_word": false,
      "lstrip": false,
      "rstrip": false,
      "normalized": false,
      "special": true
    },
    {
      "id": 2,
      "content": "<|user|>",
      "single_word": false,
      "lstrip": false,
      "rstrip": false,
      "normalized": false,
      "special": true
    },
    {
      "id": 3,
      "content": "<|assistant|>",
      "single_word": false,
      "lstrip": false,
      "rstrip": false,
      "normalized": false,
      "special": true
    },
    {
      "id": 4,
      "content": "<|tool|>",
      "single_word": false,
      "lstrip": false,
      "rstrip": false,
      "normalized": false,
      "special": true
    },
    {
      "id": 5,
      "content": "<|pad|>",
      "single_word": false,
      "lstrip": false,
      "rstrip": false,
      "normalized": false,
      "special": true
    },
    {
      "id": 6,
      "content": "<|reserved_0|>",
      "single_word": false,
      "lstrip": false,
      "rstrip": false,
      "normalized": false,
      "special": true
    },
    {
      "id": 7,
      "content": "<|reserved_1|>",
      "single_word": false,
      "lstrip": false,
      "rstrip": false,
      "normalized": false,
      "special": true
    },
    {
      "id": 8,
      "content": "<|reserved_2|>",
      "single_word": false,
      "lstrip": false,
      "rstrip": false,
      "normalized": false,
      "special": true
    },
    {
      "id": 9,
      "content": "<|reserved_3|>",
      "single_word": false,
      "lstrip": false,
      "rstrip": false,
      "normalized": false,
      "special": true
    },
    {
      "id": 10,
      "content": "<|reserved_4|>",
      "single_word": false,
      "lstrip": false,
      "rstrip": false,
      "normalized": false,
      "special": true
    },
    {
      "id": 11,
      "content": "<|reserved_5|>",
      "single_word": false,
      "lstrip": false,
      "rstrip": false,
      "normalized": false,
      "special": true
    },
    {
      "id": 12,
      "content": "<|reserved_6|>",
      "single_word": false,
      "lstrip": false,
      "rstrip": false,
      "normalized": false,
      "special": true
    },
    {
      "id": 13,
      "content": "<|reserved_7|>",
      "single_word": false,
      "lstrip": false,
      "rstrip": false,
      "normalized": false,
      "special": true
    },
    {
      "id": 14,
      "content": "<|reserved_8|>",
      "single_word": false,
      "lstrip": false,
      "rstrip": false,
      "normalized": false,
      "special": true
    },
    {
      "id": 15,
      "content": "<|reserved_9|>",
      "single_word": false,
      "lstrip": false,
      "rstrip": false,
      "normalized": false,
      "special": true
    }
  ],
  "normalizer": null,
  "pre_tokenizer": {
    "type": "Sequence",
    "pretokenizers": [
      {
        "type": "Split",
        "pattern": {
          "Regex": "(?i:'s|'t|'re|'ve|'m|'ll|'d)|[^\\r\\n\\p{L}\\p{N}]?\\p{L}+|\\p{N}| ?[^\\s\\p{L}\\p{N}]+[\\r\\n]*|\\s*[\\r\\n]+|\\s+(?!\\S)|\\s+"
        },
        "behavior": "Isolated",
        "invert": false
      },
      {
        "type": "ByteLevel",
        "add_prefix_space": false,
        "trim_offsets": true,
        "use_regex": false
      }
    ]
  },
  "post_processor": null,
  "decoder": {
    "type": "ByteLevel",
    "add_prefix_space": true,
    "trim_offsets": true,
    "use_regex": true
  },
  "model": {
    "type": "BPE",
    "dropout": null,
    "unk_token": null,
    "continuing_subword_prefix": null,
    "end_of_word_suffix": null,
    "fuse_unk": false,
    "byte_fallback": false,
    "ignore_merges": false,
    "vocab": {
      "<|endoftext|>": 0,
      "<|system|>": 1,
      "<|user|>": 2,
      "<|assistant|>": 3,
      "<|tool|>": 4,
      "<|pad|>": 5,
      "<|reserved_0|>": 6,
      "<|reserved_1|>": 7,
      "<|reserved_2|>": 8,
      "<|reserved_3|>": 9,
      "<|reserved_4|>": 10,
      "<|reserved_5|>": 11,
      "<|reserved_6|>": 12,
      "<|reserved_7|>": 13,
      "<|reserved_8|>": 14,
      "<|reserved_9|>": 15,
      "!": 16,
      "\"": 17,
      "#": 18,
      "$": 19,
      "%": 20,
      "&": 21,
      "'": 22,
      "(": 23,
      ")": 24,
      "*": 25,
      "+": 26,
      ",": 27,
      "-": 28,
      ".": 29,
      "/": 30,
      "0": 31,
      "1": 32,
      "2": 33,
      "3": 34,
      "4": 35,
      "5": 36,
      "6": 37,
      "7": 38,
      "8": 39,
      "9": 40,
      ":": 41,
      ";": 42,
      "<": 43,
      "=": 44,
      ">": 45,
      "?": 46,
      "@": 47,
      "A": 48,
      "B": 49,
      "C": 50,
      "D": 51,
      "E": 52,
      "F": 53,
      "G": 54,
      "H": 55,
      "I": 56,
      "J": 57,
      "K": 58,
      "L": 59,
      "M": 60,
      "N": 61,
      "O": 62,
      "P": 63,
      "Q": 64,
      "R": 65,
      "S": 66,
      "T": 67,
      "U": 68,
      "V": 69,
      "W": 70,
      "X": 71,
      "Y": 72,
      "Z": 73,
      "[": 74,
      "\\": 75,
      "]": 76,
      "^": 77,
      "_": 78,
      "`": 79,
      "a": 80,
      "b": 81,
      "c": 82,
      "d": 83,
      "e": 84,
      "f": 85,
      "g": 86,
      "h": 87,
      "i": 88,
      "j": 89,
      "k": 90,
      "l": 91,
      "m": 92,
      "n": 93,
      "o": 94,
      "p": 95,
      "q": 96,
      "r": 97,
      "s": 98,
      "t": 99,
      "u": 100,
      "v": 101,
      "w": 102,
      "x": 103,
      "y": 104,
      "z": 105,
      "{": 106,
      "|": 107,
      "}": 108,
      "~": 109,
      "¡": 110,
      "¢": 111,
      "£": 112,
      "¤": 113,
      "¥": 114,
      "¦": 115,
      "§": 116,
      "¨": 117,
      "©": 118,
      "ª": 119,
      "«": 120,
      "¬": 121,
      "®": 122,
      "¯": 123,
      "°": 124,
      "±": 125,
      "²": 126,
      "³": 127,
      "´": 128,
      "µ": 129,
      "¶": 130,
      "·": 131,
      "¸": 132,
      "¹": 133,
      "º": 134,
      "»": 135,
      "¼": 136,
      "½": 137,
      "¾": 138,
      "¿": 139,
      "À": 140,
      "Á": 141,
      "Â": 142,
      "Ã": 143,
      "Ä": 144,
      "Å": 145,
      "Æ": 146,
      "Ç": 147,
      "È": 148,
      "É": 149,
      "Ê": 150,
      "Ë": 151,
      "Ì": 152,
      "Í": 153,
      "Î": 154,
      "Ï": 155,
      "Ð": 156,
      "Ñ": 157,
      "Ò": 158,
      "Ó": 159,
      "Ô": 160,
      "Õ": 161,
      "Ö": 162,
      "×": 163,
      "Ø": 164,
      "Ù": 165,
      "Ú": 166,
      "Û": 167,
      "Ü": 168,
      "Ý": 169,
      "Þ": 170,
      "ß": 171,
      "à": 172,
      "á": 173,
      "â": 174,
      "ã": 175,
      "ä": 176,
      "å": 177,
      "æ": 178,
      "ç": 179,
      "è": 180,
      "é": 181,
      "ê": 182,
      "ë": 183,
      "ì": 184,
      "í": 185,
      "î": 186,
      "ï": 187,
      "ð": 188,
      "ñ": 189,
      "ò": 190,
      "ó": 191,
      "ô": 192,
      "õ": 193,
      "ö": 194,
      "÷": 195,
      "ø": 196,
      "ù": 197,
      "ú": 198,
      "û": 199,
      "ü": 200,
      "ý": 201,
      "þ": 202,
      "ÿ": 203,
      "Ā": 204,
      "ā": 205,
      "Ă": 206,
      "ă": 207,
      "Ą": 208,
      "ą": 209,
      "Ć": 210,
      "ć": 211,
      "Ĉ": 212,
      "ĉ": 213,
      "Ċ": 214,
      "ċ": 215,
      "Č": 216,
      "č": 217,
      "Ď": 218,
      "ď": 219,
      "Đ": 220,
      "đ": 221,
      "Ē": 222,
      "ē": 223,
      "Ĕ": 224,
      "ĕ": 225,
      "Ė": 226,
      "ė": 227,
      "Ę": 228,
      "ę": 229,
      "Ě": 230,
      "ě": 231,
      "Ĝ": 232,
      "ĝ": 233,
      "Ğ": 234,
      "ğ": 235,
      "Ġ": 236,
      "ġ": 237,
      "Ģ": 238,
      "ģ": 239,
      "Ĥ": 240,
      "ĥ": 241,
      "Ħ": 242,
      "ħ": 243,
      "Ĩ": 244,
      "ĩ": 245,
      "Ī": 246,
      "ī": 247,
      "Ĭ": 248,
      "ĭ": 249,
      "Į": 250,
      "į": 251,
      "İ": 252,
      "ı": 253,
      "Ĳ": 254,
      "ĳ": 255,
      "Ĵ": 256,
      "ĵ": 257,
      "Ķ": 258,
      "ķ": 259,
      "ĸ": 260,
      "Ĺ": 261,
      "ĺ": 262,
      "Ļ": 263,
      "ļ": 264,
      "Ľ": 265,
      "ľ": 266,
      "Ŀ": 267,
      "ŀ": 268,
      "Ł": 269,
      "ł": 270,
      "Ń": 271,
      "ĠĠ": 272,
      "Ġt": 273,
      "Ġa": 274,
      "in": 275,
      "he": 276,
      "re": 277,
      "on": 278,
      "er": 279,
      "Ġthe": 280,
      "at": 281,
      "Ġs": 282,
      "Ġo": 283,
      "en": 284,
      "ĠĠĠĠ": 285,
      "Ġc": 286,
      "is": 287,
      "es": 288,
      "or": 289,
      "an": 290,
      "Ġw": 291,
      "it": 292,
      "al": 293,
      "Ġp": 294,
      "ed": 295,
      "Ġf": 296,
      "Ġb": 297,
      "Ġan": 298,
      "ä¸": 299,
      "ar": 300,
      "ing": 301,
      "Ġof": 302,
      "ou": 303,
      "Ġin": 304,
      "ion": 305,
      "ic": 306,
      "Ġm": 307,
      "ï¼": 308,
      "le": 309,
      "Ġd": 310,
      "Ġto": 311,
      "Ġand": 312,
      "as": 313,
      "ro": 314,
      "ãĢ": 315,
      "ĊĊ": 316,
      "ï¼Į": 317,
      "Ġh": 318,
      "ent": 319,
      "çļ": 320,
      "çļĦ": 321,
      "Ġth": 322,
      "ct": 323,
      "st": 324,
      "et": 325,
      "Ġn": 326,
      "Ġre": 327,
      "il": 328,
      "om": 329,
      "äº": 330,
      "el": 331,
      "Ġl": 332,
      "Ġe": 333,
      "âĢ": 334,
      "ĠĠĠĠĠĠĠĠ": 335,
      "Ġis": 336,
      "id": 337,
      "æľ": 338,
      "ol": 339,
      "ĠT": 340,
      "im": 341,
      "åı": 342,
      "ut": 343,
      "am": 344,
      "ve": 345,
      "åħ": 346,
      "ĠĠĠ": 347,
      "Ġg": 348,
      "ot": 349,
      "ĠS": 350,
      "ãĢĤ": 351,
      "se": 352,
      "ur": 353,
      "ation": 354,
      "ig": 355,
      "ce": 356,
      "Ġ(": 357,
      "ĠA": 358,
      "ä»": 359,
      "ow": 360,
      "ly": 361,
      "ĠI": 362,
      "ad": 363,
      "ch": 364,
      "ĠC": 365,
      "Ġbe": 366,
      ".Ċ": 367,
      "Ġfor": 368,
      "Ġu": 369,
      "Ġon": 370,
      "Ġst": 371,
      "ver": 372,
      "å¤": 373,
      "ul": 374,
      "ay": 375,
      "if": 376,
      "å®": 377,
      "åĪ": 378,
      "åľ": 379,
      "Ġthat": 380,
      "Ġy": 381,
      "ir": 382,
      "çĶ": 383,
      "ä½": 384,
      "ra": 385,
      "od": 386,
      ";Ċ": 387,
      "ith": 388,
      "åĲ": 389,
      "ĠM": 390,
      "--": 391,
      "ter": 392,
      "Ġas": 393,
      "æĸ": 394,
      "Ġcon": 395,
      "um": 396,
      "ĠP": 397,
      "ag": 398,
      "ãĢģ": 399,
      "her": 400,
      "è¿": 401,
      "Ġ=": 402,
      "æĺ": 403,
      "åĬ": 404,
      "Ġit": 405,
      "Ġwith": 406,
      "nd": 407,
      "Ġpro": 408,
      "å¹": 409,
      "ri": 410,
      "ate": 411,
      "ist": 412,
      "Ġyou": 413,
      "Ġal": 414,
      "ab": 415,
      "ĠB": 416,
      "em": 417,
      "th": 418,
      "pe": 419,
      "Ġwh": 420,
      "Ġare": 421,
      "qu": 422,
      "Ġv": 423,
      "åĽ": 424,
      "æĪ": 425,
      "ac": 426,
      "ĠThe": 427,
      "est": 428,
      "Ġor": 429,
      "ç»": 430,
      "op": 431,
      "us": 432,
      "ers": 433,
      "åŃ": 434,
      "ä¹": 435,
      "res": 436,
      "un": 437,
      "ĠH": 438,
      "and": 439,
      "ĠD": 440,
      "ess": 441,
      "å°": 442,
      "oc": 443,
      "Ġhe": 444,
      "ere": 445,
      "åį": 446,
      "Ġex": 447,
      "ht": 448,
      ".ĊĊ": 449,
      "ä¸Ģ": 450,
      "Ġde": 451,
      "iv": 452,
      "os": 453,
      "ill": 454,
      "ĠF": 455,
      "ĠR": 456,
      "ĠW": 457,
      "nt": 458,
      "Ġcom": 459,
      "æĹ": 460,
      "Ġ*": 461,
      "ore": 462,
      "ment": 463,
      "rom": 464,
      "æĺ¯": 465,
      "Ġr": 466,
      "Ġby": 467,
      "è®": 468,
      "ld": 469,
      "ort": 470,
      "è¯": 471,
      "ity": 472,
      "ke": 473,
      "Ġat": 474,
      "Ġwas": 475,
      "ĠE": 476,
      "ĠL": 477,
      "ĠN": 478,
      "ect": 479,
      "ĉĉ": 480,
      "ain": 481,
      "åľ¨": 482,
      "ĠĠĠĠĠĠĠ": 483,
      "ap": 484,
      "Ġ\"": 485,
      "ä¼": 486,
      "ew": 487,
      "ant": 488,
      "åº": 489,
      "æĿ": 490,
      "ĠG": 491,
      "Ġsu": 492,
      "éĩ": 493,
      "pl": 494,
      "ies": 495,
      "ud": 496,
      "ä¸Ń": 497,
      "è¡": 498,
      "äºº": 499,
      "ive": 500,
      "åĮ": 501,
      "å¸": 502,
      "Ġfrom": 503,
      "éĢ": 504,
      "å¾": 505,
      "å·": 506,
      "ave": 507,
      "Ġse": 508,
      "pt": 509,
      "art": 510,
      "æķ": 511,
      "Ġch": 512,
      "Ġthis": 513,
      "æľī": 514,
      "å¹´": 515,
      "èĢ": 516,
      "å¼": 517,
      "end": 518,
      "Ġnot": 519,
      "ine": 520,
      ");Ċ": 521,
      "Ġcan": 522,
      "æī": 523,
      "all": 524,
      "ight": 525,
      "ass": 526,
      "**": 527,
      "Ġ{": 528,
      "og": 529,
      "åĴ": 530,
      "ure": 531,
      "åĨ": 532,
      "ial": 533,
      "ction": 534,
      "çĽ": 535,
      "åĴĮ": 536,
      "å¯": 537,
      "æĶ": 538,
      "ĠO": 539,
      "âĢĻ": 540,
      "ge": 541,
      "Ġsh": 542,
      "åĩ": 543,
      "å±": 544,
      "Ġle": 545,
      ")Ċ": 546,
      "Ġhave": 547,
      "ä¸į": 548,
      "ame": 549,
      "our": 550,
      "ru": 551,
      "ĠâĢ": 552,
      "Ġwe": 553,
      "Ġcl": 554,
      "age": 555,
      "'s": 556,
      "ex": 557,
      "ff": 558,
      "ical": 559,
      "out": 560,
      "iz": 561,
      "å¤§": 562,
      "ould": 563,
      "----": 564,
      "Âł": 565,
      "æł": 566,
      "ĠĠĠĠĠĠĠĠĠĠĠĠĠĠĠĠ": 567,
      "pp": 568,
      "rou": 569,
      "ost": 570,
      "cl": 571,
      "//": 572,
      "æ°": 573,
      "Ġint": 574,
      "ard": 575,
      "ãĢĤĊ": 576,
      "âĢĿ": 577,
      "è§": 578,
      "are": 579,
      "ç§": 580,
      "=\"": 581,
      "ä¸º": 582,
      "ell": 583,
      "çī": 584,
      "æĢ": 585,
      "éĻ": 586,
      ">Ċ": 587,
      "ich": 588,
      "ĥ½": 589,
      "</": 590,
      "æ³": 591,
      "æŃ": 592,
      "ult": 593,
      "ated": 594,
      "per": 595,
      "The": 596,
      "è´": 597,
      "æĬ": 598,
      "ĠJ": 599,
      "Ġab": 600,
      "ä»¥": 601,
      "ust": 602,
      "åĽ½": 603,
      "Ġus": 604,
      "ans": 605,
      "è¦": 606,
      "Ġk": 607,
      "Ġpl": 608,
      "ub": 609,
      "çİ": 610,
      "ĠU": 611,
      "ast": 612,
      "ind": 613,
      "äºĨ": 614,
      "Ġwor": 615,
      "int": 616,
      "Ġ{Ċ": 617,
      ",Ċ": 618,
      "imp": 619,
      "ome": 620,
      "ak": 621,
      "ions": 622,
      "ue": 623,
      "å½": 624,
      "able": 625,
      "ide": 626,
      "ther": 627,
      "çĶŁ": 628,
      "av": 629,
      "èĩ": 630,
      "Ġ-": 631,
      "ber": 632,
      "ack": 633,
      "çĲ": 634,
      "ip": 635,
      "åŃ¦": 636,
      "Ġwhe": 637,
      "act": 638,
      "ä¿": 639,
      "orm": 640,
      "èµ": 641,
      "çĶ¨": 642,
      "ong": 643,
      "æİ": 644,
      "Ġne": 645,
      "urn": 646,
      "Ġif": 647,
      "Ġall": 648,
      "ase": 649,
      "æµ": 650,
      "ĠIn": 651,
      "è¡Į": 652,
      "Ġres": 653,
      "Ġcont": 654,
      "çŃ": 655,
      "éĿ": 656,
      "..": 657,
      "ire": 658,
      "Ġdo": 659,
      "ary": 660,
      "cc": 661,
      "con": 662,
      "è¦ģ": 663,
      "ry": 664,
      "Ġcomp": 665,
      "æŀ": 666,
      "Ġwhich": 667,
      "Ġen": 668,
      "Ġad": 669,
      "ign": 670,
      "ib": 671,
      "åŁ": 672,
      "çº": 673,
      "Ġ<": 674,
      "åİ": 675,
      "==": 676,
      "Ġj": 677,
      "ia": 678,
      "ef": 679,
      "ous": 680,
      "Ġwill": 681,
      "du": 682,
      "ok": 683,
      "éĹ": 684,
      "ï¼ī": 685,
      "ep": 686,
      "å¿": 687,
      "ice": 688,
      "ï¼Ī": 689,
      "ations": 690,
      "ime": 691,
      "ile": 692,
      "ä¸Ĭ": 693,
      "ä¸ļ": 694,
      "éģ": 695,
      "Ġhas": 696,
      "Ġthey": 697,
      "##": 698,
      "Ġtheir": 699,
      "ĠSt": 700,
      "Ġbut": 701,
      "æĪĲ": 702,
      "ear": 703,
      "ä½ľ": 704,
      "gh": 705,
      "åľ°": 706,
      "Ġ}": 707,
      "èĥ½": 708,
      "ĠTh": 709,
      "åıĳ": 710,
      "so": 711,
      "Ġyour": 712,
      "å¥": 713,
      "one": 714,
      "ang": 715,
      "ents": 716,
      "ance": 717,
      "Ġme": 718,
      "ress": 719,
      "ace": 720,
      "åĳ": 721,
      "æ²": 722,
      "ä¸ª": 723,
      "Ġdis": 724,
      "ĠK": 725,
      "Ġmore": 726,
      "ord": 727,
      "ach": 728,
      "vel": 729,
      "Ġone": 730,
      "ally": 731,
      "()": 732,
      "åĩº": 733,
      "ood": 734,
      "âĢĻs": 735,
      "ç«": 736,
      "æĮ": 737,
      "Ġwere": 738,
      "æĹ¶": 739,
      "ild": 740,
      "Ġout": 741,
      ";ĊĊ": 742,
      "çĲĨ": 743,
      "Ġper": 744,
      "çĤ": 745,
      "é¢": 746,
      "ition": 747,
      "Ġhis": 748,
      "åı¯": 749,
      "Ġso": 750,
      "Ġun": 751,
      "ence": 752,
      "åĪĨ": 753,
      "ite": 754,
      "ount": 755,
      "Ġar": 756,
      "Ġother": 757,
      "ake": 758,
      "éĥ": 759,
      "æ³ķ": 760,
      "ä¾": 761,
      "âĢľ": 762,
      "ater": 763,
      "äºİ": 764,
      "ĠV": 765,
      "å¯¹": 766,
      "åĵ": 767,
      "ks": 768,
      "ens": 769,
      "æĭ": 770,
      "å»": 771,
      "ä¼ļ": 772,
      "å·¥": 773,
      "get": 774,
      "ç¨": 775,
      "ory": 776,
      "æĸ¹": 777,
      "æ¯": 778,
      "ree": 779,
      "ose": 780,
      "ath": 781,
      "Ġman": 782,
      "ãĢĤĊĊ": 783,
      "au": 784,
      "turn": 785,
      "åī": 786,
      "->": 787,
      "ext": 788,
      "é«": 789,
      "è¾": 790,
      "ĠĠĠĠĠĠĠĠĠĠĠ": 791,
      "ound": 792,
      "åĪ°": 793,
      "ail": 794,
      "ph": 795,
      "Ġalso": 796,
      "ĠĠĠĠĠ": 797,
      "Ġqu": 798,
      "ject": 799,
      "ces": 800,
      "éĽ": 801,
      "form": 802,
      "Ġpre": 803,
      "ely": 804,
      "ors": 805,
      "Ġev": 806,
      "Ġ+": 807,
      "Ġup": 808,
      "æ±": 809,
      "è¿Ļ": 810,
      "Ġsp": 811,
      "ata": 812,
      "ç®": 813,
      "own": 814,
      "Ġclass": 815,
      "Ġ'": 816,
      "ç¬": 817,
      "Ġsc": 818,
      "éĥ¨": 819,
      "very": 820,
      "å®ļ": 821,
      "Ġimp": 822,
      "åĮĸ": 823,
      "éĺ": 824,
      "ish": 825,
      "Ġpart": 826,
      "å®¶": 827,
      "),": 828,
      "ring": 829,
      "ode": 830,
      "ook": 831,
      "è½": 832,
      "com": 833,
      "æĹ¥": 834,
      "ï¼ļ": 835,
      "ric": 836,
      "Ġ\\": 837,
      "ĠCh": 838,
      "ype": 839,
      "In": 840,
      "æ´": 841,
      "Ġabout": 842,
      "é«ĺ": 843,
      "ubl": 844,
      "Ġ$": 845,
      ":Ċ": 846,
      "ll": 847,
      "Ġli": 848,
      "ä¸»": 849,
      "Ġwho": 850,
      "vers": 851,
      "****": 852,
      "æľ¬": 853,
      "åħ¬": 854,
      "ian": 855,
      "Ġnew": 856,
      "çŃī": 857,
      "æĽ": 858,
      "row": 859,
      ").": 860,
      "ä¸ĭ": 861,
      "ays": 862,
      "æĥ": 863,
      "ä¹ĭ": 864,
      "åĢ": 865,
      "ĠIt": 866,
      "åĲĮ": 867,
      "éķ": 868,
      "æ¸": 869,
      "åĬ¨": 870,
      "clud": 871,
      "æĦ": 872,
      "æĻ": 873,
      "æľĪ": 874,
      "iff": 875,
      "erv": 876,
      "--------": 877,
      "èĩª": 878,
      "reat": 879,
      "ie": 880,
      "åħ¶": 881,
      "åĲĪ": 882,
      "St": 883,
      "æı": 884,
      "sp": 885,
      "Ġits": 886,
      "Ġgo": 887,
      "æĢ§": 888,
      "low": 889,
      "Ġthere": 890,
      "æĸ°": 891,
      "Ġsy": 892,
      "çľ": 893,
      "Ġtr": 894,
      "ç½": 895,
      "nder": 896,
      "å¤ļ": 897,
      "tern": 898,
      "ĠY": 899,
      "ms": 900,
      "ft": 901,
      "irst": 902,
      "mer": 903,
      "__": 904,
      "ob": 905,
      "pec": 906,
      "Ġwhen": 907,
      "Ġpe": 908,
      "ove": 909,
      "Ġthan": 910,
      "Ġte": 911,
      "rit": 912,
      "æĿ¥": 913,
      "å¦": 914,
      "è¿Ľ": 915,
      "ck": 916,
      "Ġkn": 917,
      "te": 918,
      "amp": 919,
      "èĤ": 920,
      "Ġnum": 921,
      "ç¾": 922,
      "Ġtw": 923,
      "å®ŀ": 924,
      "rib": 925,
      "å»º": 926,
      "èģ": 927,
      "æĸĩ": 928,
      "åĬĽ": 929,
      "åħ¨": 930,
      "ates": 931,
      "Ġstud": 932,
      "Ġtime": 933,
      "Ġag": 934,
      "ä½ĵ": 935,
      "we": 936,
      "é¡": 937,
      "äº§": 938,
      "ä¸İ": 939,
      "æ¬": 940,
      "éļ": 941,
      "Ġhad": 942,
      "ä»ĸ": 943,
      "Ġwould": 944,
      "èĢĮ": 945,
      "ink": 946,
      "Ġsome": 947,
      "ç¬¬": 948,
      "cre": 949,
      "Ġ&": 950,
      "ings": 951,
      "li": 952,
      "elf": 953,
      "ys": 954,
      "çİ°": 955,
      "ĠâĢľ": 956,
      "ool": 957,
      "Ġro": 958,
      "åĲİ": 959,
      "Ġinto": 960,
      "Ġuse": 961,
      "ize": 962,
      "ç¤": 963,
      "åº¦": 964,
      "Ġbeen": 965,
      "Ġget": 966,
      "ock": 967,
      "Ġmay": 968,
      "ople": 969,
      "Ġover": 970,
      "åŃĲ": 971,
      "ç»ı": 972,
      "Ġyear": 973,
      "ont": 974,
      "Ġcomm": 975,
      "eth": 976,
      "Ġcol": 977,
      "ual": 978,
      "è¿ĩ": 979,
      "ĠĊ": 980,
      "ert": 981,
      "è·": 982,
      "ĠThis": 983,
      "å¸Ĥ": 984,
      "éĿ¢": 985,
      "Ġind": 986,
      "Ġany": 987,
      "Ġwork": 988,
      "æĪĳ": 989,
      "hed": 990,
      "oint": 991,
      "èĢħ": 992,
      "Ġdiff": 993,
      "Ġbec": 994,
      "\">": 995,
      "Ġbet": 996,
      "åıĬ": 997,
      "åĪ¶": 998,
      "ov": 999,
      "Ġthem": 1000,
      "èĪ": 1001,
      "çķ": 1002,
      "ific": 1003,
      "les": 1004,
      "éĩį": 1005,
      "ç´": 1006,
      "æīĢ": 1007,
      "ä¹Ł": 1008,
      "åģ": 1009,
      "ener": 1010,
      "åĬł": 1011,
      "lect": 1012,
      "ublic": 1013,
      "Ġhow": 1014,
      "ram": 1015,
      "olog": 1016,
      "æĶ¿": 1017,
      "Ġunder": 1018,
      "ause": 1019,
      "æķĻ": 1020,
      "æ°ĳ": 1021,
      "ev": 1022,
      "Ġtwo": 1023,
      "eg": 1024,
      "åºĶ": 1025,
      "ç©": 1026,
      "å¢": 1027,
      "Ġdes": 1028,
      "ons": 1029,
      "éĢļ": 1030,
      "unction": 1031,
      "Ġreturn": 1032,
      "ren": 1033,
      "çī©": 1034,
      "Ġval": 1035,
      "çŁ": 1036,
      "æį": 1037,
      "Ġfirst": 1038,
      "Ġbl": 1039,
      "Ġno": 1040,
      "å°±": 1041,
      "ĠâĢĵ": 1042,
      "ble": 1043,
      "è¶": 1044,
      "igh": 1045,
      "fter": 1046,
      "æľº": 1047,
      "ruct": 1048,
      "åħ³": 1049,
      "Ġacc": 1050,
      "ient": 1051,
      "ç³": 1052,
      "è®¾": 1053,
      "Ġpeople": 1054,
      "stem": 1055,
      "Ġob": 1056,
      "Ġonly": 1057,
      "å±ķ": 1058,
      "Ġwhat": 1059,
      "Ġass": 1060,
      "'t": 1061,
      "ics": 1062,
      "red": 1063,
      "ÂłÂł": 1064,
      "Ġ[": 1065,
      "ious": 1066,
      "Ġact": 1067,
      "å¦Ĥ": 1068,
      "äºĭ": 1069,
      "cept": 1070,
      "ec": 1071,
      "old": 1072,
      "aw": 1073,
      "erm": 1074,
      "ark": 1075,
      "çĻ": 1076,
      "Ġthese": 1077,
      "æıĲ": 1078,
      "Ġoff": 1079,
      "Ġneed": 1080,
      "ä»¬": 1081,
      "ss": 1082,
      "ick": 1083,
      "åīį": 1084,
      "Ġcons": 1085,
      "ĠUn": 1086,
      "Ġrec": 1087,
      "å¾Ĺ": 1088,
      "ade": 1089,
      "ãĢĬ": 1090,
      "ãĢĭ": 1091,
      "als": 1092,
      "èµĦ": 1093,
      "ied": 1094,
      "ä¿Ŀ": 1095,
      "å¼Ģ": 1096,
      "åĿ": 1097,
      "éĩı": 1098,
      "Ġ*/": 1099,
      "ular": 1100,
      "Ġadd": 1101,
      "port": 1102,
      "iss": 1103,
      "ç®¡": 1104,
      "èī": 1105,
      "ĠHe": 1106,
      "ä½į": 1107,
      "ational": 1108,
      "ced": 1109,
      "æķ°": 1110,
      "cess": 1111,
      "round": 1112,
      "\",": 1113,
      "Ġam": 1114,
      "_t": 1115,
      "åĽł": 1116,
      "Ġrel": 1117,
      "çł": 1118,
      "å§": 1119,
      "Ġher": 1120,
      "====": 1121,
      "åĮº": 1122,
      "ç¨ĭ": 1123,
      "ning": 1124,
      "ange": 1125,
      "::": 1126,
      "æŁ": 1127,
      "ä¸ī": 1128,
      "Ġused": 1129,
      "Ġpos": 1130,
      "Ġmost": 1131,
      "ER": 1132,
      "ng": 1133,
      "Ġlike": 1134,
      "ç³»": 1135,
      "ments": 1136,
      "ative": 1137,
      "Ġdef": 1138,
      "å¤ĸ": 1139,
      "io": 1140,
      "iew": 1141,
      "ps": 1142,
      "Ġim": 1143,
      "Ġapp": 1144,
      "æľŁ": 1145,
      "ull": 1146,
      "çĶµ": 1147,
      "ating": 1148,
      "åŁº": 1149,
      "Ġpr": 1150,
      "ä»£": 1151,
      "é£": 1152,
      "ities": 1153,
      "åĬ¡": 1154,
      "Ġinclud": 1155,
      "oth": 1156,
      "è°": 1157,
      "åħ¥": 1158,
      "æľĢ": 1159,
      "å°ı": 1160,
      "Ġsa": 1161,
      "oid": 1162,
      "Ġreg": 1163,
      "rough": 1164,
      "Ġset": 1165,
      "ution": 1166,
      "ç±": 1167,
      "Ġsub": 1168,
      "çĽ¸": 1169,
      "Ġthen": 1170,
      "Ġsuch": 1171,
      "Ġour": 1172,
      "Ġdiffere": 1173,
      "ne": 1174,
      "é¦": 1175,
      "éķ¿": 1176,
      "pect": 1177,
      "çĽ®": 1178,
      "ough": 1179,
      "åĨħ": 1180,
      "æĪĸ": 1181,
      "åĪ©": 1182,
      "ict": 1183,
      "Ġspec": 1184,
      "æ°´": 1185,
      "å¿ĥ": 1186,
      "Ġx": 1187,
      "}ĊĊ": 1188,
      "Ġfe": 1189,
      "Ġ/": 1190,
      "Ġbu": 1191,
      "ax": 1192,
      "çĦ": 1193,
      "ise": 1194,
      "ç§į": 1195,
      "Ġap": 1196,
      "çĶ±": 1197,
      "its": 1198,
      "ased": 1199,
      "ffect": 1200,
      "å¼ı": 1201,
      "hen": 1202,
      "è¡¨": 1203,
      "Ġvar": 1204,
      "Ġco": 1205,
      "Ġfl": 1206,
      "å¹³": 1207,
      "ä½¿": 1208,
      "åĲį": 1209,
      "ĠĠĠĠĠĠĠĠĠĠĠĠĠĠĠ": 1210,
      "çī¹": 1211,
      "Ġprodu": 1212,
      "Ġ|": 1213,
      "ref": 1214,
      "Ġph": 1215,
      "Ġshould": 1216,
      "Ġform": 1217,
      "è¢": 1218,
      "err": 1219,
      "ible": 1220,
      "ween": 1221,
      "Ġatt": 1222,
      "éĩĳ": 1223,
      "ix": 1224,
      "ond": 1225,
      "IN": 1226,
      "put": 1227,
      "æ¶": 1228,
      "Ġtra": 1229,
      "Ġnumber": 1230,
      "Ġmany": 1231,
      "ility": 1232,
      "Ġhel": 1233,
      "ON": 1234,
      "Ġprov": 1235,
      "éľ": 1236,
      "eld": 1237,
      "Ġthrough": 1238,
      "velop": 1239,
      "Ġjust": 1240,
      "hat": 1241,
      "inal": 1242,
      "arch": 1243,
      "æĺİ": 1244,
      "alth": 1245,
      "Ġrem": 1246,
      "Ġwhere": 1247,
      "up": 1248,
      "Ġ*/Ċ": 1249,
      "ful": 1250,
      "Ġmod": 1251,
      "éĹ´": 1252,
      "å½ĵ": 1253,
      "sc": 1254,
      "Ġem": 1255,
      "ars": 1256,
      "Ġinter": 1257,
      "ered": 1258,
      "uring": 1259,
      "Ġbetween": 1260,
      "Ġconst": 1261,
      "éģĵ": 1262,
      "ç¡": 1263,
      "Ġ//": 1264,
      "äºĮ": 1265,
      "atic": 1266,
      "æ¨": 1267,
      "Ġtrans": 1268,
      "Ġra": 1269,
      "ower": 1270,
      "èĲ": 1271,
      "ty": 1272,
      "Ġfunction": 1273,
      "ract": 1274,
      "è¨": 1275,
      "Ġpol": 1276,
      "Ġcould": 1277,
      "Ġsystem": 1278,
      "Ġ.": 1279,
      "åĵģ": 1280,
      "Ġchild": 1281,
      "ç«ĭ": 1282,
      "èĭ": 1283,
      "hes": 1284,
      "Ġknow": 1285,
      "Ġmy": 1286,
      "ollow": 1287,
      "ç¾İ": 1288,
      "çĤº": 1289,
      "Ġexp": 1290,
      "éĥ½": 1291,
      "çĤ¹": 1292,
      "ç§ĳ": 1293,
      "æģ": 1294,
      "å®ī": 1295,
      "æŃ¤": 1296,
      "ĉĉĉĉ": 1297,
      "è§Ħ": 1298,
      "Ġinv": 1299,
      "ures": 1300,
      "èĬ": 1301,
      "Ġinst": 1302,
      "cy": 1303,
      "(\"": 1304,
      "wn": 1305,
      "ç¥": 1306,
      "è¢«": 1307,
      "æº": 1308,
      "ting": 1309,
      "ä¿¡": 1310,
      "ample": 1311,
      "å¹¶": 1312,
      "Ġafter": 1313,
      "Ġdist": 1314,
      "pro": 1315,
      "Ġsm": 1316,
      "Ġequ": 1317,
      "ident": 1318,
      "è®¡": 1319,
      "Ġac": 1320,
      "set": 1321,
      "Ġi": 1322,
      "ues": 1323,
      "Ġinf": 1324,
      "}Ċ": 1325,
      "ield": 1326,
      "æĥħ": 1327,
      "Ġ}Ċ": 1328,
      "Ġdata": 1329,
      "ä»»": 1330,
      "ited": 1331,
      "Ġshe": 1332,
      "Ġcall": 1333,
      "eng": 1334,
      "Ġsur": 1335,
      "ork": 1336,
      "æĦı": 1337,
      "å¤©": 1338,
      "æ¡": 1339,
      "uch": 1340,
      "Ġmake": 1341,
      "read": 1342,
      "RE": 1343,
      "ten": 1344,
      "Ġresult": 1345,
      "arg": 1346,
      "Ġlong": 1347,
      "æ¯Ķ": 1348,
      "åĭ": 1349,
      "riv": 1350,
      "ife": 1351,
      "ins": 1352,
      "âĢĵ": 1353,
      "Ġwell": 1354,
      "ily": 1355,
      "å°Ĩ": 1356,
      "Th": 1357,
      "ĠPro": 1358,
      "Ġyears": 1359,
      "ug": 1360,
      "å£": 1361,
      "åľĭ": 1362,
      "çĪ": 1363,
      ");ĊĊ": 1364,
      "Ġdevelop": 1365,
      "ä½Ĩ": 1366,
      "çĿ": 1367,
      "Ġ:": 1368,
      "Ġrequ": 1369,
      "ines": 1370,
      ")ĊĊ": 1371,
      "Ġke": 1372,
      "åįģ": 1373,
      "âĢĶ": 1374,
      "oy": 1375,
      "cent": 1376,
      "è¥": 1377,
      "Ġeach": 1378,
      ".\"": 1379,
      "iet": 1380,
      "Ġend": 1381,
      "èĢĥ": 1382,
      "Ġpres": 1383,
      "Ġbecause": 1384,
      "app": 1385,
      "Ġhelp": 1386,
      "../": 1387,
      "åĳĺ": 1388,
      "è§£": 1389,
      "çģ": 1390,
      "ä»İ": 1391,
      "meric": 1392,
      "åŀ": 1393,
      "sh": 1394,
      "è£": 1395,
      "fore": 1396,
      "other": 1397,
      "ç¤¾": 1398,
      "æĽ´": 1399,
      "ever": 1400,
      "Ġfollow": 1401,
      "ript": 1402,
      "Ġsupp": 1403,
      "Ġsee": 1404,
      "Ġpoint": 1405,
      "å¥½": 1406,
      "Ġpublic": 1407,
      "æŃ£": 1408,
      "par": 1409,
      "æį®": 1410,
      "ense": 1411,
      "ĠIf": 1412,
      "_d": 1413,
      "æĬĢ": 1414,
      "Ex": 1415,
      "ä¸ŃåĽ½": 1416,
      "ually": 1417,
      "********": 1418,
      "land": 1419,
      "åı¯ä»¥": 1420,
      "chool": 1421,
      "ç¼": 1422,
      "è¥¿": 1423,
      "æİ¥": 1424,
      "åİŁ": 1425,
      "Ġback": 1426,
      "the": 1427,
      "ator": 1428,
      "AT": 1429,
      "å¸¸": 1430,
      "Ġdifferent": 1431,
      "ä¸Ģä¸ª": 1432,
      "Ġcur": 1433,
      "Ġdet": 1434,
      "let": 1435,
      "æ¬¡": 1436,
      "val": 1437,
      "ists": 1438,
      "Ġeven": 1439,
      "Ġway": 1440,
      "ï¼Ľ": 1441,
      "ĠCom": 1442,
      "pr": 1443,
      "Ġsame": 1444,
      "ute": 1445,
      "vent": 1446,
      "é¢ĺ": 1447,
      "Ġfind": 1448,
      "ource": 1449,
      "ä»¶": 1450,
      "ĠWe": 1451,
      "span": 1452,
      "è·¯": 1453,
      "ç»Ł": 1454,
      "ward": 1455,
      "uc": 1456,
      "ages": 1457,
      "Ġfound": 1458,
      "åıĳå±ķ": 1459,
      "Ġsaid": 1460,
      "yp": 1461,
      "Ġdoes": 1462,
      "çĦ¶": 1463,
      "gan": 1464,
      "Ġsign": 1465,
      "ined": 1466,
      "Ġref": 1467,
      "Ġ@": 1468,
      "Ġright": 1469,
      "éĤ": 1470,
      "ĠQ": 1471,
      "Ġsol": 1472,
      "çĸ": 1473,
      "Ġgener": 1474,
      "æľ¯": 1475,
      "Ġhigh": 1476,
      "ants": 1477,
      "plic": 1478,
      "ĠAl": 1479,
      "éħ": 1480,
      "ĠAn": 1481,
      "ST": 1482,
      "rent": 1483,
      "Ġfact": 1484,
      "æ·": 1485,
      "imes": 1486,
      "raph": 1487,
      "åľº": 1488,
      "Ġplay": 1489,
      "èµ·": 1490,
      "æłĩ": 1491,
      "åĲĳ": 1492,
      "Ġext": 1493,
      "ç»ĵ": 1494,
      "ash": 1495,
      "ivers": 1496,
      "lement": 1497,
      "Ġpat": 1498,
      "ature": 1499,
      "æ´»": 1500,
      "æŀľ": 1501,
      "roup": 1502,
      "nce": 1503,
      "ml": 1504,
      "Ġimport": 1505,
      "?Ċ": 1506,
      "åħ±": 1507,
      "ody": 1508,
      "Ġhim": 1509,
      "Ġed": 1510,
      "Ġpers": 1511,
      "Ġtest": 1512,
      "äº¤": 1513,
      "éĵ": 1514,
      "Ġcent": 1515,
      "air": 1516,
      "Ġvery": 1517,
      "åķ": 1518,
      "Ġent": 1519,
      "æĸ¯": 1520,
      "çĹ": 1521,
      "Ġel": 1522,
      "-t": 1523,
      "Ġmin": 1524,
      "Ġprog": 1525,
      "Ġevery": 1526,
      "åįĹ": 1527,
      "{Ċ": 1528,
      "Ġcount": 1529,
      "Ġbel": 1530,
      "AR": 1531,
      "åı¸": 1532,
      "cond": 1533,
      "äºĽ": 1534,
      "å½¢": 1535,
      "def": 1536,
      "tt": 1537,
      "æµ·": 1538,
      "ĠAr": 1539,
      "led": 1540,
      "Ġusing": 1541,
      "Ġear": 1542,
      "ince": 1543,
      "ically": 1544,
      "åħĥ": 1545,
      "Ġproble": 1546,
      "èĩ³": 1547,
      "è¯´": 1548,
      "hem": 1549,
      "Ġmat": 1550,
      "æµģ": 1551,
      "ale": 1552,
      "çłĶ": 1553,
      "æ®": 1554,
      "ts": 1555,
      "ç¦": 1556,
      "div": 1557,
      "ĠAmeric": 1558,
      "èĥ": 1559,
      "Ġloc": 1560,
      ":ĊĊ": 1561,
      "éĩĮ": 1562,
      "éľĢ": 1563,
      "sw": 1564,
      "Ġgiv": 1565,
      "aking": 1566,
      "Ġbeing": 1567,
      "æĮģ": 1568,
      "Ġshow": 1569,
      "Ġincre": 1570,
      "ead": 1571,
      "----------------": 1572,
      "Ġvalue": 1573,
      "éĻ¢": 1574,
      "Ġchar": 1575,
      "Ġmed": 1576,
      "æĶ¹": 1577,
      "Ġcor": 1578,
      "èĤ²": 1579,
      "Ġwater": 1580,
      "-b": 1581,
      "ience": 1582,
      "formation": 1583,
      "ology": 1584,
      "Ġcre": 1585,
      "ç²": 1586,
      "éĶ": 1587,
      "èĻ": 1588,
      "ĉif": 1589,
      "æ±Ĥ": 1590,
      "æĮĩ": 1591,
      "ä¼ģ": 1592,
      "bers": 1593,
      "åŀĭ": 1594,
      "chn": 1595,
      "æ¼": 1596,
      "åı°": 1597,
      "rue": 1598,
      "è´¨": 1599,
      "ox": 1600,
      "Ġmuch": 1601,
      "åĮĹ": 1602,
      "Ġname": 1603,
      "åĲĦ": 1604,
      "EN": 1605,
      "æ²»": 1606,
      "ized": 1607,
      "Ġlook": 1608,
      "ism": 1609,
      "ĠFor": 1610,
      "der": 1611,
      "ural": 1612,
      "ices": 1613,
      "é»": 1614,
      "ĉĉĉ": 1615,
      "any": 1616,
      "gy": 1617,
      "Ġ}ĊĊ": 1618,
      "uth": 1619,
      "ä¸ĸ": 1620,
      "``": 1621,
      "Ġread": 1622,
      "å¼º": 1623,
      "åĸ": 1624,
      "cer": 1625,
      "itt": 1626,
      "Ġthose": 1627,
      "Ġboth": 1628,
      "co": 1629,
      "return": 1630,
      "ĠSe": 1631,
      "Ġstart": 1632,
      "æŀĦ": 1633,
      "å·¥ä½ľ": 1634,
      "Ġdec": 1635,
      "OR": 1636,
      "Ġeffect": 1637,
      "æĹł": 1638,
      "çĥ": 1639,
      "Â·": 1640,
      "Ġgr": 1641,
      "IT": 1642,
      "æł¼": 1643,
      "çĲĥ": 1644,
      "();Ċ": 1645,
      "ner": 1646,
      "ection": 1647,
      "und": 1648,
      "ness": 1649,
      "Ġagain": 1650,
      "right": 1651,
      "æĶ¶": 1652,
      "èį": 1653,
      "å¢ŀ": 1654,
      "æĸ¼": 1655,
      "ished": 1656,
      "irect": 1657,
      "ĠHow": 1658,
      "åŁİ": 1659,
      "å±±": 1660,
      "ç»Ħ": 1661,
      "ght": 1662,
      "Ġhealth": 1663,
      "ethod": 1664,
      "åł": 1665,
      "éĹ®": 1666,
      "Ġbefore": 1667,
      "Ġser": 1668,
      "éĢł": 1669,
      "Ġexper": 1670,
      "Ġnow": 1671,
      "Ġown": 1672,
      "Ġdep": 1673,
      "Ġcar": 1674,
      "è¿ĺ": 1675,
      "Ġmon": 1676,
      "ases": 1677,
      "Ġstate": 1678,
      "ĠNew": 1679,
      "ather": 1680,
      "éĸ": 1681,
      "æºĲ": 1682,
      "lo": 1683,
      ".get": 1684,
      "tr": 1685,
      "ĠĠĠĠĠĠĠĠĠĠĠĠĠĠĠĠĠĠĠĠĠĠĠĠĠĠĠĠĠĠĠĠ": 1686,
      "å¯¼": 1687,
      "æĿ¡": 1688,
      "æľį": 1689,
      "Ġdid": 1690,
      "ĠEx": 1691,
      "ah": 1692,
      "rol": 1693,
      "ĠYou": 1694,
      "çµ": 1695,
      "add": 1696,
      "åıĺ": 1697,
      "å¤Ħ": 1698,
      "ames": 1699,
      "å½±": 1700,
      "arm": 1701,
      "Ġmem": 1702,
      "Ġconf": 1703,
      "éª": 1704,
      "Ġprocess": 1705,
      "åįķ": 1706,
      "âĢ¢": 1707,
      "line": 1708,
      "åĻ": 1709,
      "æ£": 1710,
      "dd": 1711,
      "\">Ċ": 1712,
      "çŁ¥": 1713,
      "of": 1714,
      "Ġdown": 1715,
      "Ġrese": 1716,
      "Ġworld": 1717,
      "è³": 1718,
      "åħ·": 1719,
      "Ġmade": 1720,
      "é¡¹": 1721,
      "><": 1722,
      "æĸ½": 1723,
      "ank": 1724,
      "ç±»": 1725,
      "Ġpartic": 1726,
      "AL": 1727,
      "åĽĽ": 1728,
      "æķĪ": 1729,
      "Ġhand": 1730,
      "Ġquest": 1731,
      "Ġgood": 1732,
      "ision": 1733,
      "Ġtype": 1734,
      "Ġlevel": 1735,
      "\"Ċ": 1736,
      "import": 1737,
      "åıĹ": 1738,
      "></": 1739,
      "Ġdi": 1740,
      "els": 1741,
      "Ġwhile": 1742,
      "vern": 1743,
      "æł¡": 1744,
      "ä¼ģä¸ļ": 1745,
      "way": 1746,
      "Ġpar": 1747,
      "Ġline": 1748,
      "SE": 1749,
      "tain": 1750,
      "ç½ĳ": 1751,
      "Ġrep": 1752,
      "Ġart": 1753,
      "Ġfam": 1754,
      "æīĭ": 1755,
      "Ġduring": 1756,
      "æĪĳä»¬": 1757,
      "ç®¡çĲĨ": 1758,
      "ier": 1759,
      "âĢĻt": 1760,
      "ĠAs": 1761,
      "ral": 1762,
      "Ġserv": 1763,
      "é©": 1764,
      "èº": 1765,
      "Ġthree": 1766,
      "è¿Ľè¡Į": 1767,
      "å¾·": 1768,
      "Ġself": 1769,
      "Ġstr": 1770,
      "/*": 1771,
      "ired": 1772,
      "Ġ==": 1773,
      "ann": 1774,
      "éĴ": 1775,
      "?ĊĊ": 1776,
      "åķĨ": 1777,
      "_s": 1778,
      "æĸĻ": 1779,
      "pen": 1780,
      "Ġdon": 1781,
      "èĮ": 1782,
      "Ġav": 1783,
      "Ġresp": 1784,
      "è¿Ĳ": 1785,
      "name": 1786,
      "ton": 1787,
      "Ġappro": 1788,
      "ared": 1789,
      "åı£": 1790,
      "Ġlear": 1791,
      "Ġlife": 1792,
      "cul": 1793,
      "Ġwant": 1794,
      "Ġhum": 1795,
      "oot": 1796,
      "æĿĥ": 1797,
      "Ġsom": 1798,
      "åıĸ": 1799,
      "Ġthink": 1800,
      "èī²": 1801,
      "ron": 1802,
      "ason": 1803,
      "gg": 1804,
      "å·²": 1805,
      "éĽĨ": 1806,
      "rac": 1807,
      "éŁ": 1808,
      "çº§": 1809,
      "Ġlead": 1810,
      "ole": 1811,
      "ĠThey": 1812,
      "Ġsmall": 1813,
      "orn": 1814,
      "://": 1815,
      "ĠSc": 1816,
      "-s": 1817,
      "az": 1818,
      "çĿĢ": 1819,
      "åĻ¨": 1820,
      "ĠInd": 1821,
      "ç©¶": 1822,
      "ides": 1823,
      "It": 1824,
      "hip": 1825,
      "_C": 1826,
      "_f": 1827,
      "ouse": 1828,
      "iversity": 1829,
      "Ġgu": 1830,
      "ters": 1831,
      "Ġinformation": 1832,
      "ä¼ł": 1833,
      "Ġprogram": 1834,
      "uss": 1835,
      "Ġsk": 1836,
      "Ġcell": 1837,
      "è¯ģ": 1838,
      "ets": 1839,
      "èº«": 1840,
      "çº¿": 1841,
      "Ġposs": 1842,
      "å¾Ī": 1843,
      "ctions": 1844,
      "Ġtake": 1845,
      "Ġmust": 1846,
      "LE": 1847,
      "Ġfil": 1848,
      "../../": 1849,
      "ID": 1850,
      "åħ¬åı¸": 1851,
      "ä¸ĵ": 1852,
      "$$": 1853,
      "eb": 1854,
      "å¸ĥ": 1855,
      "Ġstudy": 1856,
      "aj": 1857,
      "Ġwrit": 1858,
      "ify": 1859,
      "Ġexample": 1860,
      "to": 1861,
      "Ġschool": 1862,
      "Ġpop": 1863,
      "Ġperson": 1864,
      "Ġ</": 1865,
      "Ġlist": 1866,
      "ality": 1867,
      "Pro": 1868,
      "AN": 1869,
      "_c": 1870,
      "åıĤ": 1871,
      "ved": 1872,
      "html": 1873,
      "åĪĽ": 1874,
      "omen": 1875,
      "Ġ#": 1876,
      "Ġsoc": 1877,
      "æĶ¯": 1878,
      "td": 1879,
      "min": 1880,
      "akes": 1881,
      "Ġmain": 1882,
      "ery": 1883,
      "Ġcase": 1884,
      "Ġchildren": 1885,
      "ĠAnd": 1886,
      "æİ¨": 1887,
      "å°ĳ": 1888,
      "',": 1889,
      "pos": 1890,
      "æĵ": 1891,
      "æ»": 1892,
      "è°ĥ": 1893,
      "ĠĠĠĠĠĠĠĠĠ": 1894,
      "æĶ¾": 1895,
      ".,": 1896,
      "Ġless": 1897,
      "è½¦": 1898,
      "çı": 1899,
      "This": 1900,
      "ength": 1901,
      "self": 1902,
      "çľĭ": 1903,
      "Ġbre": 1904,
      "stand": 1905,
      "iron": 1906,
      "ray": 1907,
      "ĠSh": 1908,
      "ury": 1909,
      "Ġgl": 1910,
      "æ°Ķ": 1911,
      "}{": 1912,
      "èģĶ": 1913,
      "ote": 1914,
      "ider": 1915,
      "Ġest": 1916,
      "Ġimportant": 1917,
      "åĮħ": 1918,
      "AS": 1919,
      "ially": 1920,
      "ä¸¤": 1921,
      "Ġcap": 1922,
      "è®¤": 1923,
      "ç¤º": 1924,
      "ww": 1925,
      "Ġ!": 1926,
      "Ġins": 1927,
      ".com": 1928,
      "Ġmet": 1929,
      "èĦ": 1930,
      "ives": 1931,
      "ument": 1932,
      "è»": 1933,
      "ç©º": 1934,
      "Ġerr": 1935,
      "ä»·": 1936,
      "Ġexpl": 1937,
      "))": 1938,
      "ivid": 1939,
      "arent": 1940,
      "heck": 1941,
      "Ġdisc": 1942,
      "Ġtechn": 1943,
      "Ġcommun": 1944,
      "ç¡®": 1945,
      "ional": 1946,
      "éĹ¨": 1947,
      "èİ": 1948,
      "ĠCl": 1949,
      "oun": 1950,
      "man": 1951,
      "lear": 1952,
      "Ġsecond": 1953,
      "åĩĨ": 1954,
      "çİ¯": 1955,
      "-d": 1956,
      "###": 1957,
      "ware": 1958,
      "ä½¿çĶ¨": 1959,
      "æĢ»": 1960,
      "ĠBut": 1961,
      "Ġstudents": 1962,
      "oh": 1963,
      "å²": 1964,
      "æľĥ": 1965,
      "Ġsupport": 1966,
      "æµİ": 1967,
      "ä¾Ľ": 1968,
      "-f": 1969,
      "struct": 1970,
      "Ġday": 1971,
      "ency": 1972,
      "å¸Ī": 1973,
      "æ¨¡": 1974,
      "_p": 1975,
      "æł·": 1976,
      "anc": 1977,
      "åģļ": 1978,
      "çĽ´": 1979,
      "åħĭ": 1980,
      "Ġaround": 1981,
      "('": 1982,
      "èª": 1983,
      "ross": 1984,
      ".h": 1985,
      "ĠCon": 1986,
      "ï¼īĊ": 1987,
      "çłĶç©¶": 1988,
      "æĻĤ": 1989,
      "å®Į": 1990,
      "Ġhist": 1991,
      "Ch": 1992,
      "ä¹¦": 1993,
      "_b": 1994,
      "åħĪ": 1995,
      ",\"": 1996,
      "yle": 1997,
      "çķĮ": 1998,
      "ãĥ": 1999,
      "æĬķ": 2000,
      "åĶ": 2001,
      "ä¹ī": 2002,
      "UL": 2003,
      "ĉreturn": 2004,
      "è±": 2005,
      "ee": 2006,
      "itions": 2007,
      "Ġpower": 2008,
      "ds": 2009,
      "åŃĹ": 2010,
      "åı²": 2011,
      "Ġprot": 2012,
      "cript": 2013,
      "åŃĺ": 2014,
      "ç¤¾ä¼ļ": 2015,
      "yn": 2016,
      "ãĢĮ": 2017,
      "æ¢": 2018,
      "æ¡Ī": 2019,
      "ãĢį": 2020,
      "Ġcalled": 2021,
      "æģ¯": 2022,
      "å¾Į": 2023,
      "ask": 2024,
      "ä¸ľ": 2025,
      "str": 2026,
      "æĬĢæľ¯": 2027,
      "æĦŁ": 2028,
      "Ġstill": 2029,
      "Ġhref": 2030,
      "========": 2031,
      "é£İ": 2032,
      "ream": 2033,
      "...": 2034,
      "åıį": 2035,
      "åıª": 2036,
      "Ġhere": 2037,
      "Ġocc": 2038,
      "åºľ": 2039,
      "Ġcal": 2040,
      "å®¹": 2041,
      "Ġcontin": 2042,
      "oss": 2043,
      "_m": 2044,
      "Ġwithout": 2045,
      "åĽŀ": 2046,
      "atch": 2047,
      "Ġ>": 2048,
      "çİĩ": 2049,
      "ç¶": 2050,
      "Ġgiven": 2051,
      "ital": 2052,
      "Ġactiv": 2053,
      "æĬ¥": 2054,
      "Ġcare": 2055,
      ".c": 2056,
      "Ġbuild": 2057,
      "Ġgrow": 2058,
      "éĹ®é¢ĺ": 2059,
      "oci": 2060,
      "æĴ": 2061,
      "æ¥": 2062,
      "ium": 2063,
      "ç»ıæµİ": 2064,
      "åĽ½å®¶": 2065,
      "alk": 2066,
      "åİ»": 2067,
      "éĿŀ": 2068,
      "Ġpass": 2069,
      "æķĻèĤ²": 2070,
      ".S": 2071,
      "lex": 2072,
      "Ġsim": 2073,
      "æĪ¿": 2074,
      "opy": 2075,
      "Ġopt": 2076,
      "ffic": 2077,
      "æĿĳ": 2078,
      "ym": 2079,
      "ĠWh": 2080,
      "ĠIs": 2081,
      "èŃ": 2082,
      "ĠX": 2083,
      "////": 2084,
      "Ġdesign": 2085,
      "arge": 2086,
      ".âĢĿ": 2087,
      "Ġcond": 2088,
      "Ġrun": 2089,
      "bs": 2090,
      "è®º": 2091,
      "å·ŀ": 2092,
      "å¢ĥ": 2093,
      "Ġstruct": 2094,
      "æĥ³": 2095,
      "Ġz": 2096,
      "è½¬": 2097,
      "Ġcurrent": 2098,
      "ified": 2099,
      "_S": 2100,
      "ane": 2101,
      "Ġtri": 2102,
      "ä¹Ī": 2103,
      "ï¼Įåľ¨": 2104,
      "çľģ": 2105,
      "æŁ¥": 2106,
      "ains": 2107,
      "IC": 2108,
      "æķ´": 2109,
      "String": 2110,
      "Ġallow": 2111,
      "ribut": 2112,
      "ulation": 2113,
      "Ġoper": 2114,
      "ä¹ł": 2115,
      "ĠZ": 2116,
      "è´¹": 2117,
      "Ġstand": 2118,
      "Ġtreat": 2119,
      "irc": 2120,
      "Ġelse": 2121,
      "è¾¾": 2122,
      "view": 2123,
      "outh": 2124,
      "ats": 2125,
      "ement": 2126,
      "Ġlast": 2127,
      "Ġmethod": 2128,
      "çħ": 2129,
      "æ²¡": 2130,
      "Ġfollowing": 2131,
      "å¼ķ": 2132,
      "Ġtrue": 2133,
      "Ġobject": 2134,
      "Ġ`": 2135,
      "play": 2136,
      "è¯¥": 2137,
      "itive": 2138,
      "Ġvoid": 2139,
      "att": 2140,
      "rite": 2141,
      "åĪĹ": 2142,
      "viron": 2143,
      "Ġcour": 2144,
      "äºĶ": 2145,
      "åĨĽ": 2146,
      "æĤ": 2147,
      "éł": 2148,
      "erest": 2149,
      "acter": 2150,
      "çĬ": 2151,
      "çĹħ": 2152,
      "Ġâ": 2153,
      "alse": 2154,
      "Ġsay": 2155,
      "éĺ²": 2156,
      "æŃ¥": 2157,
      "Ġoften": 2158,
      "èĢģ": 2159,
      "æ¯ı": 2160,
      "å·±": 2161,
      "ior": 2162,
      "æł¹": 2163,
      ".s": 2164,
      "å¤ĩ": 2165,
      "ccess": 2166,
      "ization": 2167,
      "ĠĊĊ": 2168,
      "æ³¨": 2169,
      "ability": 2170,
      "ĠDe": 2171,
      "que": 2172,
      "Ġdirect": 2173,
      "ves": 2174,
      "Ġgovern": 2175,
      "aus": 2176,
      "Ġmult": 2177,
      "DE": 2178,
      "Ġcommon": 2179,
      "Ġplace": 2180,
      "èĳ": 2181,
      "ç«Ļ": 2182,
      "ĠĠĠĠĠĠĠĠĠĠĠĠĠĠĠĠĠĠĠ": 2183,
      "day": 2184,
      "ression": 2185,
      "éĢļè¿ĩ": 2186,
      "è¯Ĩ": 2187,
      "ï¼Įä½Ĩ": 2188,
      "ven": 2189,
      "face": 2190,
      "Ġgroup": 2191,
      "åħī": 2192,
      "for": 2193,
      "é¢Ĩ": 2194,
      "AC": 2195,
      "rain": 2196,
      "åĪ«": 2197,
      "less": 2198,
      "frac": 2199,
      "Ġbo": 2200,
      "ott": 2201,
      "eter": 2202,
      "essage": 2203,
      "æľįåĬ¡": 2204,
      "Ġarea": 2205,
      "ately": 2206,
      "Ġfood": 2207,
      "æ¸ħ": 2208,
      "Ġtem": 2209,
      "Ġknown": 2210,
      "Ġgreat": 2211,
      "è®°": 2212,
      ".html": 2213,
      "Ġspe": 2214,
      "fo": 2215,
      "Ġchange": 2216,
      "æĪĺ": 2217,
      "çİĭ": 2218,
      "Ġanother": 2219,
      "Ġsize": 2220,
      "Ġtyp": 2221,
      "Ġeas": 2222,
      "åĪĻ": 2223,
      "åĨ³": 2224,
      "____": 2225,
      "Ġreal": 2226,
      "Ġreport": 2227,
      "æľª": 2228,
      "è¾ĥ": 2229,
      "éĢī": 2230,
      "è¿ĳ": 2231,
      "å£«": 2232,
      "ik": 2233,
      "Ġtop": 2234,
      "Ġchang": 2235,
      "Ġsl": 2236,
      "-m": 2237,
      "-c": 2238,
      "ä½İ": 2239,
      "æĺĵ": 2240,
      "Ġorgan": 2241,
      "equ": 2242,
      "åĢ¼": 2243,
      "åĤ": 2244,
      "Ġhead": 2245,
      "èĬĤ": 2246,
      "Ġmeas": 2247,
      "Ġansw": 2248,
      "ç¥ŀ": 2249,
      "vert": 2250,
      "å®ĥ": 2251,
      "angu": 2252,
      "åŃ¸": 2253,
      "here": 2254,
      "Ġincluding": 2255,
      "Ġdev": 2256,
      "ä¸ĩ": 2257,
      "Ġbody": 2258,
      "èı": 2259,
      "text": 2260,
      "Ġmight": 2261,
      "Ġredu": 2262,
      "ĠSo": 2263,
      "aving": 2264,
      "å¥³": 2265,
      "ule": 2266,
      "èĩªå·±": 2267,
      "Ġ--": 2268,
      "Ġproper": 2269,
      "Cl": 2270,
      "é¦ĸ": 2271,
      "Con": 2272,
      "Ġelect": 2273,
      "ived": 2274,
      "_l": 2275,
      "define": 2276,
      "ĠCol": 2277,
      "Name": 2278,
      "ç½®": 2279,
      "br": 2280,
      "ache": 2281,
      "æĬ¤": 2282,
      "ively": 2283,
      "ĠSp": 2284,
      "å¡": 2285,
      "_P": 2286,
      "å±Ģ": 2287,
      "icense": 2288,
      "ients": 2289,
      "Ġfin": 2290,
      "ential": 2291,
      ".d": 2292,
      "Ġide": 2293,
      "uro": 2294,
      "æ¼Ķ": 2295,
      "æĢĿ": 2296,
      "ĠAmerican": 2297,
      "ways": 2298,
      "Ġgre": 2299,
      "ception": 2300,
      "åĦ": 2301,
      "Ġbeh": 2302,
      "Ġfew": 2303,
      "clude": 2304,
      "not": 2305,
      "Ġvis": 2306,
      "ĠUniversity": 2307,
      "Ġlaw": 2308,
      ".m": 2309,
      "Ġris": 2310,
      "âĢ¦": 2311,
      "åŃ¦çĶŁ": 2312,
      "ault": 2313,
      "org": 2314,
      "iety": 2315,
      "å»ºè®¾": 2316,
      "Ġadv": 2317,
      "ä¸»è¦ģ": 2318,
      "åĽ¾": 2319,
      "å§Ķ": 2320,
      "List": 2321,
      "Ġrest": 2322,
      "vironment": 2323,
      "Ġmean": 2324,
      "Ġorder": 2325,
      "ples": 2326,
      "fig": 2327,
      "rem": 2328,
      "ination": 2329,
      "||": 2330,
      "Type": 2331,
      "Ġbook": 2332,
      "ä½ķ": 2333,
      "Ġunderstand": 2334,
      "åŁŁ": 2335,
      "ĠEng": 2336,
      "ÂłÂłÂłÂł": 2337,
      "æĢģ": 2338,
      "åĬŁ": 2339,
      "Ġproblem": 2340,
      "ES": 2341,
      "Ġold": 2342,
      "Ġprof": 2343,
      "ns": 2344,
      "å§ĭ": 2345,
      "ä½ł": 2346,
      "resent": 2347,
      "ĠPl": 2348,
      "agn": 2349,
      "éľĢè¦ģ": 2350,
      "Ġpo": 2351,
      "æİ§": 2352,
      "Ġgen": 2353,
      "orth": 2354,
      "rivate": 2355,
      "requ": 2356,
      "èĭ±": 2357,
      "Ġresearch": 2358,
      "Ġpost": 2359,
      "æīį": 2360,
      "aterial": 2361,
      "Ġanal": 2362,
      "Ġmark": 2363,
      "åħļ": 2364,
      "åĨľ": 2365,
      "ĠRes": 2366,
      "Ġappe": 2367,
      "Ġpresent": 2368,
      "Ġorig": 2369,
      "åĪĴ": 2370,
      "Ġnon": 2371,
      "ither": 2372,
      "reg": 2373,
      "ries": 2374,
      "æ¶Ī": 2375,
      "bl": 2376,
      "ush": 2377,
      "Ġsince": 2378,
      "èĪĩ": 2379,
      "éĢŁ": 2380,
      ".p": 2381,
      "ä¾ĭ": 2382,
      "æ·±": 2383,
      "Ġopen": 2384,
      "è¶³": 2385,
      "Ġproduct": 2386,
      "Ġdem": 2387,
      "atus": 2388,
      "inc": 2389,
      "å¹¿": 2390,
      "Ġdise": 2391,
      "ĠWhat": 2392,
      "iod": 2393,
      "Com": 2394,
      "ĠThere": 2395,
      "mp": 2396,
      ").Ċ": 2397,
      "Ġperform": 2398,
      "uff": 2399,
      "ĠĠĠĠĠĠ": 2400,
      "Ġtoo": 2401,
      "Ġsimp": 2402,
      "ern": 2403,
      "Ġfile": 2404,
      "Cont": 2405,
      "Ġinc": 2406,
      "Ġ*Ċ": 2407,
      "hers": 2408,
      "version": 2409,
      "Ġbest": 2410,
      "Ġhuman": 2411,
      "Ġlet": 2412,
      "Ġtry": 2413,
      "ought": 2414,
      "è§Ĥ": 2415,
      "Ġident": 2416,
      "itle": 2417,
      "å¤į": 2418,
      "æĭī": 2419,
      "åľŁ": 2420,
      "Ġinterest": 2421,
      "Ġ%": 2422,
      "code": 2423,
      "Ġproject": 2424,
      "rop": 2425,
      "lection": 2426,
      "ĠPh": 2427,
      "Ġagainst": 2428,
      "ertain": 2429,
      "Ġfour": 2430,
      "ording": 2431,
      "lete": 2432,
      "ç®Ĺ": 2433,
      "å¿ħ": 2434,
      "#define": 2435,
      "Ġpur": 2436,
      "è®®": 2437,
      "Ġ,": 2438,
      "æµĭ": 2439,
      "ek": 2440,
      "Ġve": 2441,
      "äººæ°ĳ": 2442,
      "nces": 2443,
      "éĽ»": 2444,
      "conom": 2445,
      "éĻ©": 2446,
      "ends": 2447,
      "éĻħ": 2448,
      "Ġland": 2449,
      "ources": 2450,
      "åħ»": 2451,
      "Ġwithin": 2452,
      "lish": 2453,
      ".g": 2454,
      "ergy": 2455,
      "by": 2456,
      "å°Ķ": 2457,
      "æ®µ": 2458,
      "åĨį": 2459,
      "æĶ¿åºľ": 2460,
      "To": 2461,
      "Ġlim": 2462,
      "Ġiss": 2463,
      "Ġmus": 2464,
      "åįĩ": 2465,
      "ç²¾": 2466,
      "è¯ķ": 2467,
      "crib": 2468,
      "ering": 2469,
      "Ġunt": 2470,
      "####": 2471,
      "åĳ½": 2472,
      "ĠAll": 2473,
      "ĠLe": 2474,
      "ission": 2475,
      "Ġfield": 2476,
      "Ġsit": 2477,
      "rap": 2478,
      "Ġleft": 2479,
      "åį³": 2480,
      "Ġcontrol": 2481,
      "ternal": 2482,
      "èģĮ": 2483,
      "ration": 2484,
      "ina": 2485,
      "iness": 2486,
      "nect": 2487,
      "raw": 2488,
      "Ġsing": 2489,
      "ç»Ļ": 2490,
      "Ġpract": 2491,
      "éªĮ": 2492,
      "ittle": 2493,
      "comm": 2494,
      "ajor": 2495,
      "éĻ¤": 2496,
      "Ġlarge": 2497,
      "åĮ»": 2498,
      "è©": 2499,
      "åĬŀ": 2500,
      "ians": 2501,
      "Ġbas": 2502,
      "éĤ£": 2503,
      "use": 2504,
      "itional": 2505,
      "roll": 2506,
      "Ġet": 2507,
      "èŀ": 2508,
      "ç³»ç»Ł": 2509,
      "Ġter": 2510,
      "å¸¦": 2511,
      "æ²¡æľī": 2512,
      "æ¸¯": 2513,
      "è¯Ń": 2514,
      "uthor": 2515,
      "_T": 2516,
      "ey": 2517,
      "åĨµ": 2518,
      "osed": 2519,
      "ç¢": 2520,
      "æĬĬ": 2521,
      "Ġ_": 2522,
      "Ġwar": 2523,
      "Ġlo": 2524,
      "åĬ©": 2525,
      "ç´ł": 2526,
      "med": 2527,
      "èĲ¥": 2528,
      "ividual": 2529,
      "Ġwomen": 2530,
      "gs": 2531,
      "Ġsym": 2532,
      "ots": 2533,
      "An": 2534,
      "Res": 2535,
      "è²": 2536,
      "illion": 2537,
      "class": 2538,
      "_M": 2539,
      "éħį": 2540,
      "Ġbetter": 2541,
      "vious": 2542,
      "çº¦": 2543,
      "æŀĹ": 2544,
      "è´£": 2545,
      "èĮĥ": 2546,
      "include": 2547,
      "Ġhapp": 2548,
      "AM": 2549,
      "ember": 2550,
      "Ġturn": 2551,
      "Ġquestion": 2552,
      "éĻĲ": 2553,
      "è®©": 2554,
      "æħ": 2555,
      "htt": 2556,
      "Ġvari": 2557,
      "gin": 2558,
      "çľŁ": 2559,
      "IS": 2560,
      "Ġvol": 2561,
      "çŃĸ": 2562,
      "],": 2563,
      "If": 2564,
      "CT": 2565,
      "Ġpossible": 2566,
      "ĠUnited": 2567,
      "AP": 2568,
      "arget": 2569,
      "å¤ª": 2570,
      "æĪ·": 2571,
      "åĳĬ": 2572,
      "åĵ¡": 2573,
      "éŁ³": 2574,
      "ç§°": 2575,
      "Ġmove": 2576,
      "ien": 2577,
      "Ġlight": 2578,
      "ç·": 2579,
      "Ġmov": 2580,
      "è§ģ": 2581,
      "****************": 2582,
      "Ġant": 2583,
      "å¸Ĥåľº": 2584,
      "çĭ": 2585,
      "æīĵ": 2586,
      "Ġrece": 2587,
      "ething": 2588,
      "ĠRe": 2589,
      "Ġtimes": 2590,
      "ilar": 2591,
      "iter": 2592,
      "erence": 2593,
      "oms": 2594,
      "ently": 2595,
      "Ġmeans": 2596,
      "Ġeduc": 2597,
      "rans": 2598,
      "åİĨ": 2599,
      "Ġenergy": 2600,
      "æķ°æį®": 2601,
      "Ġeng": 2602,
      "inter": 2603,
      "Ġlater": 2604,
      "ma": 2605,
      "ä¼ĺ": 2606,
      "rist": 2607,
      "Ġopp": 2608,
      "è±¡": 2609,
      "Ġplan": 2610,
      "Ġsever": 2611,
      "ï¼īï¼Į": 2612,
      "imate": 2613,
      "be": 2614,
      "Ġnext": 2615,
      "ĠFr": 2616,
      "this": 2617,
      "ards": 2618,
      "åĥ": 2619,
      "Ġsum": 2620,
      "ĠThese": 2621,
      "ç»´": 2622,
      "Ġbased": 2623,
      "back": 2624,
      "onse": 2625,
      "è§Ĩ": 2626,
      "å¾ĭ": 2627,
      "ume": 2628,
      "UT": 2629,
      "olution": 2630,
      ".l": 2631,
      "Ġhome": 2632,
      "work": 2633,
      "ret": 2634,
      "åı·": 2635,
      "Ġkey": 2636,
      "ĠCan": 2637,
      "ems": 2638,
      "Ġsw": 2639,
      "Ġfamily": 2640,
      "ĠOn": 2641,
      "aster": 2642,
      "orld": 2643,
      "ï¼ĮèĢĮ": 2644,
      "ograph": 2645,
      "å®īåħ¨": 2646,
      "ctor": 2647,
      "ĠWhen": 2648,
      "Ġphys": 2649,
      "Ġput": 2650,
      "çĽĳ": 2651,
      "ids": 2652,
      "ailable": 2653,
      "éĩĩ": 2654,
      "{\\": 2655,
      "ĠHowever": 2656,
      "ç»Ń": 2657,
      "ç±³": 2658,
      "ided": 2659,
      "éĩįè¦ģ": 2660,
      "Ġgoing": 2661,
      "ĠTo": 2662,
      "åĢĭ": 2663,
      "Ġ||": 2664,
      "Ġfinal": 2665,
      "Ġkeep": 2666,
      "ãģ": 2667,
      "Ġinclude": 2668,
      "anguage": 2669,
      "idd": 2670,
      "lu": 2671,
      "ams": 2672,
      "#include": 2673,
      "Ġ)": 2674,
      "As": 2675,
      "Ġindividual": 2676,
      "Ġrele": 2677,
      "ope": 2678,
      "rad": 2679,
      "icle": 2680,
      "ä»¥åıĬ": 2681,
      "We": 2682,
      "Ġthings": 2683,
      "Ġes": 2684,
      "Ġrad": 2685,
      "Ġlow": 2686,
      "For": 2687,
      "ining": 2688,
      "ä¸ŃçļĦ": 2689,
      "ä¾Ŀ": 2690,
      "ably": 2691,
      "è¶Ĭ": 2692,
      "Ġmen": 2693,
      "çį": 2694,
      "**Ċ": 2695,
      "åı¯èĥ½": 2696,
      "key": 2697,
      "ä¿¡æģ¯": 2698,
      "Ġnumbers": 2699,
      "Ġview": 2700,
      "Ġcaus": 2701,
      "ised": 2702,
      "rr": 2703,
      "ç¸": 2704,
      "ĠComm": 2705,
      "å°±æĺ¯": 2706,
      "ä¸Ķ": 2707,
      "aces": 2708,
      "Ġpercent": 2709,
      "Ġ!=": 2710,
      "Ġgovernment": 2711,
      "Ġpot": 2712,
      "rict": 2713,
      "ths": 2714,
      "ention": 2715,
      "ger": 2716,
      "].": 2717,
      "å±Ĥ": 2718,
      "Ġfree": 2719,
      "ister": 2720,
      "å±ŀ": 2721,
      "çħ§": 2722,
      "ape": 2723,
      "af": 2724,
      "Val": 2725,
      "ĠOr": 2726,
      "Ġmil": 2727,
      "è¶ħ": 2728,
      "arc": 2729,
      "çª": 2730,
      "Ġuntil": 2731,
      "iving": 2732,
      "Ġsignific": 2733,
      "Ġcost": 2734,
      "RO": 2735,
      "Id": 2736,
      "åįİ": 2737,
      "Ġsays": 2738,
      "Ġdel": 2739,
      "ĠUS": 2740,
      "åıĪ": 2741,
      "Ġbr": 2742,
      "æ²³": 2743,
      "ended": 2744,
      "èĩ´": 2745,
      "åĵį": 2746,
      ");": 2747,
      "ä¿®": 2748,
      "Ġimpro": 2749,
      "ç¬¬ä¸Ģ": 2750,
      "son": 2751,
      "ler": 2752,
      "Ġben": 2753,
      "Ġsomething": 2754,
      "cur": 2755,
      "Ġbus": 2756,
      "\"><": 2757,
      "ental": 2758,
      "çīĩ": 2759,
      "è£ħ": 2760,
      "çĻ½": 2761,
      "Ġseveral": 2762,
      "æ¹": 2763,
      "èħ": 2764,
      "Ġtext": 2765,
      "Ġmaterial": 2766,
      "Ġabove": 2767,
      "aps": 2768,
      "ser": 2769,
      "Ġcr": 2770,
      "ird": 2771,
      "Ġearly": 2772,
      "Ġhig": 2773,
      "ĠAt": 2774,
      "ç§¯": 2775,
      "Ġaut": 2776,
      "-p": 2777,
      "Ġlittle": 2778,
      "æİĴ": 2779,
      "ä»Ĭ": 2780,
      "Ġnear": 2781,
      "Ġmajor": 2782,
      "ables": 2783,
      "å¿«": 2784,
      "Ġhard": 2785,
      "Ġlab": 2786,
      "Ġside": 2787,
      "uf": 2788,
      "æĸĩåĮĸ": 2789,
      "åħ¶ä»ĸ": 2790,
      "left": 2791,
      "Ġdevelopment": 2792,
      "(n": 2793,
      "Ġanswer": 2794,
      "Ġinvol": 2795,
      "px": 2796,
      "\",Ċ": 2797,
      "è¨Ģ": 2798,
      "Ar": 2799,
      "æĸŃ": 2800,
      ",âĢĿ": 2801,
      "ending": 2802,
      "Ġexpect": 2803,
      "æł¸": 2804,
      "Ġdeterm": 2805,
      "igned": 2806,
      "è¦ģæ±Ĥ": 2807,
      "Ġable": 2808,
      "åĳ¨": 2809,
      "èĹ": 2810,
      "Ã©": 2811,
      "æĺŁ": 2812,
      "éĥ¨åĪĨ": 2813,
      "ĠShe": 2814,
      "Ġalways": 2815,
      "Ġreally": 2816,
      "idth": 2817,
      "Ġpain": 2818,
      "è¯¾": 2819,
      "itor": 2820,
      "Ref": 2821,
      "èŀį": 2822,
      "ĠStates": 2823,
      "ION": 2824,
      "Ġair": 2825,
      "indow": 2826,
      "Ġenvironment": 2827,
      "ological": 2828,
      "æĮī": 2829,
      "Ġshort": 2830,
      "Ġparticular": 2831,
      "é¢Ħ": 2832,
      "Ġbro": 2833,
      "Ġperiod": 2834,
      "çĻ¼": 2835,
      "idence": 2836,
      "ances": 2837,
      "Ġnull": 2838,
      "yl": 2839,
      "une": 2840,
      "ï¼Įå¹¶": 2841,
      "æ±Ł": 2842,
      "Ġret": 2843,
      "Ġ$$": 2844,
      "åĭķ": 2845,
      "é¦Ļ": 2846,
      "Ġoccur": 2847,
      "-l": 2848,
      "ç¯": 2849,
      "Ġrecord": 2850,
      "Ġbecome": 2851,
      "head": 2852,
      "ĠâĢĺ": 2853,
      "ories": 2854,
      "Ġleg": 2855,
      "åı¤": 2856,
      "What": 2857,
      "(x": 2858,
      "å¤±": 2859,
      "over": 2860,
      "ĠLicense": 2861,
      "));Ċ": 2862,
      "por": 2863,
      "æ£Ģ": 2864,
      "ystem": 2865,
      "Ġprob": 2866,
      "ï¼Įä¸į": 2867,
      "Ġlearn": 2868,
      "èĥ½åĬĽ": 2869,
      "ured": 2870,
      "ĠâĢĶ": 2871,
      "ï¼Įè¿Ļ": 2872,
      "é£Ł": 2873,
      "thing": 2874,
      "Ġfeel": 2875,
      "Ġalong": 2876,
      "cont": 2877,
      "Ġlik": 2878,
      "ç»ĩ": 2879,
      "æĸ¹éĿ¢": 2880,
      "imal": 2881,
      "\");Ċ": 2882,
      "Ġlocal": 2883,
      "Ġassoci": 2884,
      "ploy": 2885,
      "æŀģ": 2886,
      "Ġmar": 2887,
      "unc": 2888,
      "atural": 2889,
      "Ġsuccess": 2890,
      "Ġproblems": 2891,
      "Ġcome": 2892,
      "ED": 2893,
      "urther": 2894,
      "å¾Ģ": 2895,
      "å¤´": 2896,
      "dev": 2897,
      "ĠAd": 2898,
      "å¦Ĥæŀľ": 2899,
      "Ġresults": 2900,
      "Ġcreate": 2901,
      "_F": 2902,
      "å¨": 2903,
      "Ġsocial": 2904,
      "Ġcult": 2905,
      "Ġeither": 2906,
      "_n": 2907,
      "Ġdescrib": 2908,
      "rag": 2909,
      "++": 2910,
      "Ġ/*": 2911,
      "Ġcontain": 2912,
      "Ġsqu": 2913,
      "ï¼Įæĺ¯": 2914,
      "Ġlog": 2915,
      "duct": 2916,
      "static": 2917,
      "ä¸ĸçķĮ": 2918,
      "çĮ": 2919,
      "ĠBl": 2920,
      "æĹ¶éĹ´": 2921,
      "rect": 2922,
      "Ġavailable": 2923,
      "ocument": 2924,
      "Ġtot": 2925,
      "çļĦä¸Ģ": 2926,
      "æī¿": 2927,
      "åİĭ": 2928,
      "Ġinit": 2929,
      "Ġcho": 2930,
      "æ©": 2931,
      "ills": 2932,
      "Ġfalse": 2933,
      "ocus": 2934,
      "Ġdisease": 2935,
      "Ġask": 2936,
      "ling": 2937,
      "ai": 2938,
      "çĥŃ": 2939,
      "ãĤ": 2940,
      "æĿĲ": 2941,
      "stit": 2942,
      "Ġhistory": 2943,
      "æıĲä¾Ľ": 2944,
      "Ġeconom": 2945,
      "æĹı": 2946,
      "éĻį": 2947,
      "ĠTe": 2948,
      "alf": 2949,
      "Ġnever": 2950,
      "ä¸įåĲĮ": 2951,
      "AB": 2952,
      "éļ¾": 2953,
      "æĥħåĨµ": 2954,
      "çĽĬ": 2955,
      "æĭ¬": 2956,
      "Ġcells": 2957,
      "æ¬¾": 2958,
      "bject": 2959,
      "(f": 2960,
      "é¾": 2961,
      "osp": 2962,
      "'re": 2963,
      "Ġcalcul": 2964,
      "Ġspecific": 2965,
      "Ġlarg": 2966,
      "ieve": 2967,
      "]Ċ": 2968,
      "Ġaccess": 2969,
      "ï¼Ł": 2970,
      "ftware": 2971,
      "Ġdays": 2972,
      "Ġmanag": 2973,
      "ored": 2974,
      "è¯Ħ": 2975,
      "Ġevent": 2976,
      "ULL": 2977,
      "mber": 2978,
      "è¯·": 2979,
      "Ġrisk": 2980,
      "Ġblood": 2981,
      "Ġele": 2982,
      "void": 2983,
      "é¡¹çĽ®": 2984,
      ".t": 2985,
      "Ġcomb": 2986,
      "è¼": 2987,
      "Ġcirc": 2988,
      "IG": 2989,
      ".f": 2990,
      "ç¾¤": 2991,
      "çİ¯å¢ĥ": 2992,
      "ormal": 2993,
      "å·¥ç¨ĭ": 2994,
      "Ġterm": 2995,
      "Ġfore": 2996,
      "Ġarg": 2997,
      "ours": 2998,
      "Ġwhy": 2999,
      "iver": 3000,
      "å®ĺ": 3001,
      "æļ": 3002,
      "éĺŁ": 3003,
      "aper": 3004,
      "äº¬": 3005,
      "ava": 3006,
      "Ġbi": 3007,
      "though": 3008,
      "Ġprovide": 3009,
      "Ġapplic": 3010,
      "Ġcertain": 3011,
      "æĺ¾": 3012,
      "Ġpolit": 3013,
      "Ġsignificant": 3014,
      "Ġfar": 3015,
      "èĲ½": 3016,
      "ET": 3017,
      "çŁ³": 3018,
      "Ġamong": 3019,
      "opt": 3020,
      "_in": 3021,
      "è§Ħå®ļ": 3022,
      "ley": 3023,
      "è§Ĵ": 3024,
      "Ġid": 3025,
      "Ġrepresent": 3026,
      "ogn": 3027,
      "ãĢĤåľ¨": 3028,
      "Ġamount": 3029,
      "ĠNational": 3030,
      "åİ¿": 3031,
      "åįĢ": 3032,
      "åŁ¹": 3033,
      "ĠJoh": 3034,
      "ysis": 3035,
      "å®¢": 3036,
      "ĠQu": 3037,
      "const": 3038,
      "erences": 3039,
      "ä½ı": 3040,
      "(t": 3041,
      "Ġleast": 3042,
      "Ġprivate": 3043,
      "Ġpress": 3044,
      "æĻ®": 3045,
      "ç¨İ": 3046,
      "Ġfr": 3047,
      "}}": 3048,
      "é©¬": 3049,
      "var": 3050,
      "bo": 3051,
      "ateg": 3052,
      "etic": 3053,
      "order": 3054,
      "ĠCent": 3055,
      "ready": 3056,
      "Ġhtt": 3057,
      "Ġdeath": 3058,
      "Ġinvest": 3059,
      "_{": 3060,
      "å½±åĵį": 3061,
      "cing": 3062,
      "Ġage": 3063,
      "Ġprom": 3064,
      "éĿ©": 3065,
      "Ġfail": 3066,
      "åĿĩ": 3067,
      "Ġsugg": 3068,
      "åįı": 3069,
      "çĻ¾": 3070,
      "Ġsuggest": 3071,
      "Ġspace": 3072,
      "æķħ": 3073,
      "urope": 3074,
      "çĶŁæ´»": 3075,
      "Ġtre": 3076,
      "Ġexam": 3077,
      "util": 3078,
      "ä»Ģ": 3079,
      "Ġinteg": 3080,
      "çĬ¶": 3081,
      "Ġcountry": 3082,
      "ung": 3083,
      "Ġothers": 3084,
      "åŃ¦ä¹ł": 3085,
      "èĬ±": 3086,
      "Ġworks": 3087,
      "å±ħ": 3088,
      "Ġdue": 3089,
      "Ġpatients": 3090,
      "è®¾è®¡": 3091,
      "Ġpath": 3092,
      "Ġcomput": 3093,
      "Ġgive": 3094,
      "omet": 3095,
      "ç»Ħç»ĩ": 3096,
      "æĸ¹å¼ı": 3097,
      "åĮħæĭ¬": 3098,
      "Ġcharacter": 3099,
      "Ġclear": 3100,
      "oney": 3101,
      "On": 3102,
      "Ġsaf": 3103,
      "rel": 3104,
      "ison": 3105,
      "_st": 3106,
      "AD": 3107,
      "UR": 3108,
      "my": 3109,
      ".j": 3110,
      "ä»ĸä»¬": 3111,
      "Ġmodel": 3112,
      "çīĪ": 3113,
      "ĠMay": 3114,
      "Al": 3115,
      "Ġstep": 3116,
      "Ġparent": 3117,
      "ones": 3118,
      "(s": 3119,
      "Ġvalues": 3120,
      "æĳ": 3121,
      "Ġsimilar": 3122,
      "Ġ&&": 3123,
      "ĠCal": 3124,
      "col": 3125,
      "à¤": 3126,
      "action": 3127,
      "Ġorg": 3128,
      "param": 3129,
      "wh": 3130,
      "ĠMed": 3131,
      "Ġvir": 3132,
      "åĦ¿": 3133,
      "nb": 3134,
      "äºļ": 3135,
      "åĪĿ": 3136,
      "å¯Ĩ": 3137,
      "èİ·": 3138,
      "Ġcause": 3139,
      "Ġnet": 3140,
      "ags": 3141,
      "æĸ¹æ³ķ": 3142,
      "ĠString": 3143,
      "ball": 3144,
      "aim": 3145,
      "ĠPr": 3146,
      "Ġfull": 3147,
      "Ġteam": 3148,
      "PE": 3149,
      "æŀĲ": 3150,
      "Ġpubl": 3151,
      "ternational": 3152,
      "Ġtreatment": 3153,
      "ĊĊĊ": 3154,
      "Ġsingle": 3155,
      "ĠBe": 3156,
      "Ġmaking": 3157,
      "\":": 3158,
      "éĢĤ": 3159,
      "Ġcheck": 3160,
      "ä¾Ĩ": 3161,
      "ground": 3162,
      "ĠMar": 3163,
      "icro": 3164,
      "inks": 3165,
      "è»į": 3166,
      "ification": 3167,
      "Ġcourse": 3168,
      "Ġbig": 3169,
      "OT": 3170,
      "å¹²": 3171,
      "verage": 3172,
      "ĠThat": 3173,
      "åŃ©": 3174,
      "ç¿": 3175,
      "ators": 3176,
      "ç¦»": 3177,
      "Ġexist": 3178,
      "æľĿ": 3179,
      "Ġdr": 3180,
      "æĪĸèĢħ": 3181,
      "):Ċ": 3182,
      "ving": 3183,
      "Ġbreak": 3184,
      "Ġlanguage": 3185,
      "_D": 3186,
      "Ġsure": 3187,
      "åĬ¿": 3188,
      "Ġaffect": 3189,
      "ĠWorld": 3190,
      "Ġestab": 3191,
      "aken": 3192,
      "Ġbir": 3193,
      "Ġang": 3194,
      "By": 3195,
      "gen": 3196,
      "Ġrange": 3197,
      "åħŃ": 3198,
      "å®¡": 3199,
      "You": 3200,
      "Ġenough": 3201,
      "Ġcreat": 3202,
      "Ġgame": 3203,
      "oman": 3204,
      "Ġconsider": 3205,
      "rc": 3206,
      "Ġspecies": 3207,
      "ilt": 3208,
      "Ġrequire": 3209,
      "Ġsource": 3210,
      "empt": 3211,
      "oph": 3212,
      "åĽ¢": 3213,
      "ç»Ĩ": 3214,
      "éķ·": 3215,
      "Ġaway": 3216,
      "Ġdiv": 3217,
      "Ġdone": 3218,
      "Ġgeneral": 3219,
      "Ġyoung": 3220,
      "value": 3221,
      "Ġthought": 3222,
      "åº·": 3223,
      "uture": 3224,
      "ales": 3225,
      "Ġprotect": 3226,
      "load": 3227,
      "ï¼Įä¹Ł": 3228,
      "æĻ¯": 3229,
      "ĠBrit": 3230,
      "Ġcode": 3231,
      "Ġbenef": 3232,
      "æĻº": 3233,
      "ourn": 3234,
      "ĠEurope": 3235,
      "æĽ²": 3236,
      "ĠÃ": 3237,
      "^{": 3238,
      "Data": 3239,
      "reen": 3240,
      "roups": 3241,
      "ĠGo": 3242,
      "æ¿": 3243,
      "Ġalready": 3244,
      "ĉp": 3245,
      "Ġhaving": 3246,
      "ç¬¬äºĮ": 3247,
      "ĠGerm": 3248,
      "Ġtotal": 3249,
      "oll": 3250,
      "çĶŁäº§": 3251,
      "äºĴ": 3252,
      "icult": 3253,
      "Ġpoints": 3254,
      "åŁİå¸Ĥ": 3255,
      "comp": 3256,
      "ĠChrist": 3257,
      "ï¼Įä»¥": 3258,
      "Ġcrit": 3259,
      "åĲĮæĹ¶": 3260,
      "gether": 3261,
      "äº§åĵģ": 3262,
      "âĢĿï¼Į": 3263,
      "Ġlength": 3264,
      "Ġtogether": 3265,
      "èĤ¡": 3266,
      "å¤§åŃ¦": 3267,
      "Ġareas": 3268,
      "Ġkind": 3269,
      "éŃ": 3270,
      "ibr": 3271,
      "ä¾¿": 3272,
      "Ġenc": 3273,
      "åĸĦ": 3274,
      "ta": 3275,
      "éļı": 3276,
      "nbsp": 3277,
      "ouble": 3278,
      "Ġindic": 3279,
      "Wh": 3280,
      "Ġport": 3281,
      "ique": 3282,
      "Un": 3283,
      "Ġlevels": 3284,
      "Ġreason": 3285,
      "Ġey": 3286,
      "ae": 3287,
      "Ġtrad": 3288,
      "ĠNo": 3289,
      "Ġcontent": 3290,
      "Ġscient": 3291,
      "åģ¥": 3292,
      "HE": 3293,
      "ĠEn": 3294,
      "obal": 3295,
      "most": 3296,
      "().": 3297,
      "Ġwhether": 3298,
      "_B": 3299,
      "TR": 3300,
      "uild": 3301,
      "éĸĭ": 3302,
      "IM": 3303,
      "å·´": 3304,
      "å°¼": 3305,
      "Ġfac": 3306,
      "ĠAf": 3307,
      "åĽłæŃ¤": 3308,
      "ä»½": 3309,
      "iple": 3310,
      "aring": 3311,
      "off": 3312,
      "epend": 3313,
      "æ¸¸": 3314,
      "side": 3315,
      "Ġdeg": 3316,
      "å³": 3317,
      "äººçļĦ": 3318,
      "ĠAss": 3319,
      "è¿ĩç¨ĭ": 3320,
      "Ġremain": 3321,
      "éĺ¿": 3322,
      "Ġmot": 3323,
      "ump": 3324,
      "æĴŃ": 3325,
      "date": 3326,
      "rror": 3327,
      "ä½ľä¸º": 3328,
      "erc": 3329,
      "US": 3330,
      "å®¤": 3331,
      "CO": 3332,
      "ä¼Ĺ": 3333,
      "ession": 3334,
      "Ġspecial": 3335,
      "Ġur": 3336,
      "Ġflow": 3337,
      "äººåĳĺ": 3338,
      "æĹ¥æľ¬": 3339,
      "How": 3340,
      "Ġpast": 3341,
      "Ġmass": 3342,
      "ops": 3343,
      "wards": 3344,
      "ued": 3345,
      "Ġrequired": 3346,
      "ä¸Ńå¿ĥ": 3347,
      "igure": 3348,
      "éĿĴ": 3349,
      "ands": 3350,
      "iation": 3351,
      "ruction": 3352,
      "Ġlot": 3353,
      "atory": 3354,
      "rodu": 3355,
      "å®ŀçİ°": 3356,
      "è¯»": 3357,
      "yd": 3358,
      "Ġversion": 3359,
      "serv": 3360,
      "Ġbelow": 3361,
      ".org": 3362,
      "ä»Ģä¹Ī": 3363,
      "-g": 3364,
      "è´Ł": 3365,
      "ĠĠĠĠĠĠĠĠĠĠĠĠĠ": 3366,
      "ĠWar": 3367,
      "ĠCar": 3368,
      "æĬķèµĦ": 3369,
      "åĩı": 3370,
      "--------------------------------": 3371,
      "ober": 3372,
      "Ġterms": 3373,
      "dis": 3374,
      "Ġtell": 3375,
      "Ġpay": 3376,
      "|Ċ": 3377,
      "ä¸¥": 3378,
      "ĠĠĠĠĠĠĠĠĠĠĠĠĠĠĠĠĠĠĠĠĠĠĠ": 3379,
      "çĽ¸åħ³": 3380,
      "åŁºç¡": 3381,
      "Ġneg": 3382,
      "FF": 3383,
      "Ġdig": 3384,
      "ival": 3385,
      "åŁºç¡Ģ": 3386,
      "æĽ¾": 3387,
      "rix": 3388,
      "),Ċ": 3389,
      "å¼ł": 3390,
      "æ¦": 3391,
      "Ġauthor": 3392,
      "Ġpopulation": 3393,
      "iting": 3394,
      "Ġbegin": 3395,
      "ç«ł": 3396,
      "ING": 3397,
      "äºī": 3398,
      "Ġworking": 3399,
      "apt": 3400,
      "åįķä½į": 3401,
      "ĠGod": 3402,
      "Ġconnect": 3403,
      "çŃĳ": 3404,
      "å¿µ": 3405,
      "Ġerror": 3406,
      "Ġbecame": 3407,
      "æ´²": 3408,
      "Sh": 3409,
      "acy": 3410,
      "åĩł": 3411,
      "Ġrate": 3412,
      "è´¢": 3413,
      "æ´»åĬ¨": 3414,
      "asing": 3415,
      "ä¸¦": 3416,
      "plied": 3417,
      "Ġchanges": 3418,
      "Ġfocus": 3419,
      "Ġprevent": 3420,
      "èĳĹ": 3421,
      "Ġann": 3422,
      "è®¸": 3423,
      "istic": 3424,
      "aut": 3425,
      "çģ«": 3426,
      "Ġhigher": 3427,
      "ĠOne": 3428,
      "Ġnatural": 3429,
      "äº§ä¸ļ": 3430,
      "æ³¢": 3431,
      "ift": 3432,
      "ero": 3433,
      "Ġwords": 3434,
      "ĠâĢ¢": 3435,
      "upp": 3436,
      "åĽ´": 3437,
      "There": 3438,
      "ideo": 3439,
      "æī¹": 3440,
      "Ġrelations": 3441,
      "Ġlikely": 3442,
      ">ĊĊ": 3443,
      "Ġhouse": 3444,
      "æĿİ": 3445,
      "\".": 3446,
      "Ġabs": 3447,
      "Ġstatic": 3448,
      "Ġdiscuss": 3449,
      "Ġthough": 3450,
      "ene": 3451,
      "Ġposition": 3452,
      "é¥": 3453,
      "æł¹æį®": 3454,
      "ï¼Įåħ¶": 3455,
      "Ġimm": 3456,
      "www": 3457,
      "Ġtarget": 3458,
      "):": 3459,
      "Ġess": 3460,
      "Ġbusiness": 3461,
      "ĠNULL": 3462,
      "å¿Ĺ": 3463,
      "Ġusually": 3464,
      "Ġmillion": 3465,
      "Ġstring": 3466,
      "åħ·æľī": 3467,
      "æ¸©": 3468,
      "fer": 3469,
      "icy": 3470,
      "ails": 3471,
      "Ġlearning": 3472,
      "Ġconditions": 3473,
      "http": 3474,
      "ĠÂł": 3475,
      "Ġseries": 3476,
      "index": 3477,
      "Ġoffic": 3478,
      "Ġbehav": 3479,
      "ried": 3480,
      "çĪ¾": 3481,
      "()Ċ": 3482,
      "'m": 3483,
      "ĠRep": 3484,
      "Ġred": 3485,
      "(p": 3486,
      "è¡ĮæĶ¿": 3487,
      "ä»ħ": 3488,
      "Ġmakes": 3489,
      "ounds": 3490,
      "å°į": 3491,
      "lected": 3492,
      "[i": 3493,
      "place": 3494,
      "åĨĻ": 3495,
      "åºı": 3496,
      "cle": 3497,
      "ä¹¡": 3498,
      "æĪĲä¸º": 3499,
      "Ġstrong": 3500,
      "itch": 3501,
      "bol": 3502,
      "uck": 3503,
      "data": 3504,
      "ĠGener": 3505,
      "Ġincrease": 3506,
      "))Ċ": 3507,
      "ortun": 3508,
      "è³½": 3509,
      "æłĩåĩĨ": 3510,
      "çĸĹ": 3511,
      "ĠMan": 3512,
      "çĩ": 3513,
      "ĠCont": 3514,
      "ç¾İåĽ½": 3515,
      "å¾ģ": 3516,
      "ĠGe": 3517,
      "Ġhowever": 3518,
      "åıĥ": 3519,
      "åħħ": 3520,
      "éĥ¨éĹ¨": 3521,
      "atures": 3522,
      "Ġvarious": 3523,
      "Set": 3524,
      "åľ°åĮº": 3525,
      "-h": 3526,
      "Ġonce": 3527,
      "Ġacross": 3528,
      "Ġindust": 3529,
      "ĠÂ": 3530,
      "leg": 3531,
      "åŃ©åŃĲ": 3532,
      "Col": 3533,
      "ãĢĢ": 3534,
      "åĥı": 3535,
      "eder": 3536,
      "-w": 3537,
      "Re": 3538,
      ".n": 3539,
      "Ġprim": 3540,
      "Ġsuper": 3541,
      "Ġquestions": 3542,
      "hern": 3543,
      "è¿Ļä¸ª": 3544,
      "](": 3545,
      "åħ«": 3546,
      "Ġfri": 3547,
      "mod": 3548,
      "æıĲé«ĺ": 3549,
      "lease": 3550,
      "Ġactually": 3551,
      "Ġhold": 3552,
      "}\\": 3553,
      "ula": 3554,
      "ledge": 3555,
      "é¦Ļæ¸¯": 3556,
      "umn": 3557,
      "Ġsubject": 3558,
      "ipp": 3559,
      "umber": 3560,
      "è¿ŀ": 3561,
      "Ġaddress": 3562,
      "Ġcommunity": 3563,
      "But": 3564,
      "æŃ¢": 3565,
      "LO": 3566,
      "Qu": 3567,
      "He": 3568,
      "è¯Ŀ": 3569,
      "}$": 3570,
      "uation": 3571,
      "Value": 3572,
      "Get": 3573,
      "(&": 3574,
      "Ġgot": 3575,
      "æľºæŀĦ": 3576,
      "æĺ¯ä¸Ģ": 3577,
      "Ġtemper": 3578,
      "Ġdifficult": 3579,
      "AG": 3580,
      "Ġaccount": 3581,
      "pecially": 3582,
      "Ġneeds": 3583,
      "urch": 3584,
      "ption": 3585,
      "ĠÎ": 3586,
      "enn": 3587,
      "Ind": 3588,
      "ips": 3589,
      "éº": 3590,
      "Ġnecess": 3591,
      "èĴ": 3592,
      "earch": 3593,
      "print": 3594,
      "åį¡": 3595,
      "Sc": 3596,
      "äºŀ": 3597,
      "Ġbase": 3598,
      "æĲ": 3599,
      "Ġheart": 3600,
      "Ġfive": 3601,
      "SS": 3602,
      "now": 3603,
      "IL": 3604,
      "Ġpage": 3605,
      "Ġcentury": 3606,
      "Ġsystems": 3607,
      "Ġrole": 3608,
      "inary": 3609,
      "çĨ": 3610,
      "aves": 3611,
      "rt": 3612,
      "ribute": 3613,
      "Ġfrequ": 3614,
      "Ġplant": 3615,
      "è¡Ģ": 3616,
      "Ġtoday": 3617,
      "èį¯": 3618,
      "ĠWith": 3619,
      "æĶ¿çŃĸ": 3620,
      "åł´": 3621,
      "Ġcases": 3622,
      "æŃ¦": 3623,
      "Ġprevious": 3624,
      "æ¤": 3625,
      "Ġtable": 3626,
      "ĠJohn": 3627,
      "æĿ±": 3628,
      "ari": 3629,
      "åĪĩ": 3630,
      "èĪ¬": 3631,
      "ires": 3632,
      "åĢĻ": 3633,
      "ibility": 3634,
      "éķĩ": 3635,
      "è¦ĸ": 3636,
      "ç§ĳåŃ¦": 3637,
      "Ġdom": 3638,
      "ties": 3639,
      "Ġmax": 3640,
      "ç¦ı": 3641,
      "Ġtitle": 3642,
      "Ġcomplet": 3643,
      "Ġfoot": 3644,
      "And": 3645,
      "////////": 3646,
      "Ġcity": 3647,
      "Ġtool": 3648,
      "Ġsimple": 3649,
      "Ġcolor": 3650,
      "script": 3651,
      "raft": 3652,
      "æ½": 3653,
      "Ġgroups": 3654,
      "[@": 3655,
      "_N": 3656,
      "Ġseen": 3657,
      "Ġill": 3658,
      "',Ċ": 3659,
      "cription": 3660,
      "Ġgraph": 3661,
      "åŁºæľ¬": 3662,
      "çļĦäºº": 3663,
      "ules": 3664,
      ".âĢĿĊ": 3665,
      "ĠInt": 3666,
      "Ġexperience": 3667,
      "Ġhttp": 3668,
      "mon": 3669,
      "Ġfuture": 3670,
      "è¿°": 3671,
      "Ġways": 3672,
      "åĽłä¸º": 3673,
      "Ġsent": 3674,
      "é¡»": 3675,
      "Ġweek": 3676,
      "ĠJan": 3677,
      "fficient": 3678,
      "imum": 3679,
      "Ġpred": 3680,
      "!Ċ": 3681,
      "Ġcancer": 3682,
      "ilities": 3683,
      "åĪĨæŀĲ": 3684,
      "ĠState": 3685,
      "ervice": 3686,
      "ĠAm": 3687,
      "bar": 3688,
      "çº³": 3689,
      "Exception": 3690,
      "ĠPar": 3691,
      "ĠAb": 3692,
      "èµ°": 3693,
      "Ġfurther": 3694,
      "Ġwhole": 3695,
      "Ġche": 3696,
      "rows": 3697,
      "Ġword": 3698,
      "Ġequal": 3699,
      "Ġdoesn": 3700,
      "Ġthing": 3701,
      "ĠBy": 3702,
      "åı¦": 3703,
      "Ġ<<": 3704,
      "ude": 3705,
      "Ġcy": 3706,
      "å»ºç«ĭ": 3707,
      "Ġeducation": 3708,
      "Ġrespons": 3709,
      "ustom": 3710,
      "ĠGu": 3711,
      "Ġmeasure": 3712,
      "Ġstudies": 3713,
      "Ġweight": 3714,
      "å¯Ł": 3715,
      "Ġlower": 3716,
      "ribution": 3717,
      "Ġhalf": 3718,
      "Ġmembers": 3719,
      "Ġtypes": 3720,
      "ĠAust": 3721,
      "ä»¤": 3722,
      "ĠYork": 3723,
      "math": 3724,
      "Ġstory": 3725,
      "å¤«": 3726,
      "ĠSouth": 3727,
      "Ġbit": 3728,
      "iol": 3729,
      "ä¸ĵä¸ļ": 3730,
      "æī§": 3731,
      "ĠAN": 3732,
      "ĠComp": 3733,
      "ĠAfric": 3734,
      "Ġcame": 3735,
      "orts": 3736,
      ").ĊĊ": 3737,
      "Ġ$\\": 3738,
      "ising": 3739,
      "çı¾": 3740,
      "lam": 3741,
      "Ġimpact": 3742,
      "Ġfall": 3743,
      "_h": 3744,
      "å»ºçŃĳ": 3745,
      "utions": 3746,
      "sy": 3747,
      "æĪ°": 3748,
      "ĠII": 3749,
      "ĠIm": 3750,
      "ä¹Ĳ": 3751,
      "ivity": 3752,
      "æ»¡": 3753,
      "èµĦæºĲ": 3754,
      "Ġdest": 3755,
      "lock": 3756,
      "æĹ©": 3757,
      "ä½ľçĶ¨": 3758,
      "ĠEnglish": 3759,
      "Ġrather": 3760,
      "ĠDo": 3761,
      "æ²¹": 3762,
      "Object": 3763,
      "å·®": 3764,
      "Ġsite": 3765,
      "Ġteac": 3766,
      "ĠEar": 3767,
      "Ġpublished": 3768,
      "çĶ³": 3769,
      "artment": 3770,
      "åºĶçĶ¨": 3771,
      "ä¿ĿæĬ¤": 3772,
      "ney": 3773,
      "UN": 3774,
      "æŁĲ": 3775,
      "å¤§çļĦ": 3776,
      "Ġfund": 3777,
      "ributed": 3778,
      "bre": 3779,
      "Ġforce": 3780,
      "ches": 3781,
      "åħį": 3782,
      "ĠâĪ": 3783,
      "uration": 3784,
      "Im": 3785,
      "ĠPol": 3786,
      "rec": 3787,
      "style": 3788,
      "ç»ĵæŀĦ": 3789,
      "Ġresponse": 3790,
      "å¾®": 3791,
      "Ġcopy": 3792,
      "éļĬ": 3793,
      "æİ§åĪ¶": 3794,
      "Ġoriginal": 3795,
      "å¤ĦçĲĨ": 3796,
      "åİĨåı²": 3797,
      "å¯Į": 3798,
      "èĺ": 3799,
      "Ġcut": 3800,
      "Ġmoney": 3801,
      "å®³": 3802,
      "Ġwrite": 3803,
      "river": 3804,
      "string": 3805,
      "åĨħå®¹": 3806,
      "å¤Ł": 3807,
      "å¯¹äºİ": 3808,
      "Ġeffects": 3809,
      "éĸĵ": 3810,
      "Ġtook": 3811,
      "Ġground": 3812,
      "èīº": 3813,
      "åıĳçĶŁ": 3814,
      "Ġservice": 3815,
      "åŃĺåľ¨": 3816,
      ".b": 3817,
      "amed": 3818,
      "ension": 3819,
      "Ġsens": 3820,
      "åĲ¦": 3821,
      "Ġdam": 3822,
      "Ġsurface": 3823,
      "ux": 3824,
      "elves": 3825,
      "è¿ĻäºĽ": 3826,
      "aced": 3827,
      "ä¸ĢäºĽ": 3828,
      "é«Ķ": 3829,
      "Ġcannot": 3830,
      "Ġcreated": 3831,
      "eed": 3832,
      "åŃ£": 3833,
      "åºķ": 3834,
      "Ġuser": 3835,
      "æ©Ł": 3836,
      "aching": 3837,
      "åħ´": 3838,
      "åĲ«": 3839,
      "ius": 3840,
      "éļľ": 3841,
      "éĺ³": 3842,
      "oon": 3843,
      "Ġmind": 3844,
      "Ġaddition": 3845,
      "hemat": 3846,
      "ges": 3847,
      "Ġjob": 3848,
      "å¥¹": 3849,
      "ple": 3850,
      "IP": 3851,
      "ä¸ĬçļĦ": 3852,
      "Ġobserv": 3853,
      "ĠSome": 3854,
      "oad": 3855,
      "ç¼ĸ": 3856,
      "çķ¥": 3857,
      "_id": 3858,
      "Ġexpress": 3859,
      "chan": 3860,
      "onent": 3861,
      "çĶ°": 3862,
      "è»Ĭ": 3863,
      "åĽŃ": 3864,
      "æīĢä»¥": 3865,
      "ç§»": 3866,
      "ĠIN": 3867,
      "Ġ(!": 3868,
      "ï¼Įæľī": 3869,
      "Ġstandard": 3870,
      "Ġemploy": 3871,
      "éĵ¶": 3872,
      "ils": 3873,
      "Ġconsid": 3874,
      "ged": 3875,
      "é¢Ŀ": 3876,
      "ç»Ī": 3877,
      "iction": 3878,
      ".\"ĊĊ": 3879,
      "verse": 3880,
      "æĭħ": 3881,
      "ĉc": 3882,
      "æľĽ": 3883,
      "Ġinflu": 3884,
      "ĠCount": 3885,
      "Ġcorrect": 3886,
      "Ġrespect": 3887,
      "Ġmusic": 3888,
      "Ġespecially": 3889,
      "ĠNorth": 3890,
      "ief": 3891,
      "çºª": 3892,
      "ĠAfter": 3893,
      "ç»ľ": 3894,
      "Error": 3895,
      "isc": 3896,
      ".set": 3897,
      "mit": 3898,
      "lt": 3899,
      "md": 3900,
      "æŃ»": 3901,
      "éĶĢ": 3902,
      "ç¶ĵ": 3903,
      "Ġsolution": 3904,
      "åŃ¦æł¡": 3905,
      "illed": 3906,
      "ä»£è¡¨": 3907,
      "angle": 3908,
      "åį°": 3909,
      "Ġidea": 3910,
      "References": 3911,
      "signed": 3912,
      "ĠDep": 3913,
      "ç¹": 3914,
      "çªģ": 3915,
      "Ġblack": 3916,
      "âĢĶâĢĶ": 3917,
      "tes": 3918,
      "Ġcompany": 3919,
      "Ġla": 3920,
      "aff": 3921,
      "utes": 3922,
      "Ġattack": 3923,
      "sequ": 3924,
      "Ġsix": 3925,
      "è´¨éĩı": 3926,
      "ze": 3927,
      "ogle": 3928,
      "resp": 3929,
      "CH": 3930,
      "reed": 3931,
      "overed": 3932,
      "ender": 3933,
      "Ġcomplex": 3934,
      "rid": 3935,
      "Ġ__": 3936,
      "Ġlink": 3937,
      "ĠStud": 3938,
      "ication": 3939,
      "Ġpositive": 3940,
      "æīĢæľī": 3941,
      "'ve": 3942,
      "åĿļ": 3943,
      "çļĦæĺ¯": 3944,
      "ĠSchool": 3945,
      "de": 3946,
      "ç®Ģ": 3947,
      "çķĻ": 3948,
      "Ġlay": 3949,
      "lean": 3950,
      "EM": 3951,
      "atter": 3952,
      "light": 3953,
      "When": 3954,
      "åĩºçİ°": 3955,
      "acc": 3956,
      "è¾¹": 3957,
      "ĠCo": 3958,
      "å½ķ": 3959,
      "iddle": 3960,
      "Ġbuilding": 3961,
      "Ġtechnology": 3962,
      "ĠEd": 3963,
      "Ġprint": 3964,
      "ls": 3965,
      "Ġneeded": 3966,
      "Ġimprove": 3967,
      "Ġstop": 3968,
      "Ġep": 3969,
      "Ġanalysis": 3970,
      "Ġassociated": 3971,
      "ĠReg": 3972,
      "Ġtaken": 3973,
      "ened": 3974,
      "Ġactivity": 3975,
      "());Ċ": 3976,
      "File": 3977,
      "Ġparticip": 3978,
      "ä¹Ŀ": 3979,
      "type": 3980,
      "lying": 3981,
      "clus": 3982,
      "çıŃ": 3983,
      "Int": 3984,
      "å¼Ģå§ĭ": 3985,
      "lege": 3986,
      "\"></": 3987,
      "ĠĠĠĠĠĠĠĠĠĠĠĠ": 3988,
      "urs": 3989,
      "è¡¥": 3990,
      "All": 3991,
      "åħ³ç³»": 3992,
      "å¤®": 3993,
      "ENT": 3994,
      "åĪĽæĸ°": 3995,
      "Ġwritten": 3996,
      "ournal": 3997,
      "go": 3998,
      "Se": 3999,
      "åĪ¶åº¦": 4000,
      "å®£": 4001,
      "Ġblock": 4002,
      "åıĭ": 4003,
      "':": 4004,
      "Ġpotential": 4005,
      "/s": 4006,
      "So": 4007,
      "ager": 4008,
      "lation": 4009,
      "ï¼ļĊ": 4010,
      "æ¯į": 4011,
      "è«": 4012,
      "çĽ®åīį": 4013,
      "ä¸ĥ": 4014,
      "Ġsoftware": 4015,
      "NA": 4016,
      "Ġdeb": 4017,
      "å·²ç»ı": 4018,
      "ä¸ĢèĪ¬": 4019,
      "æŃĮ": 4020,
      "new": 4021,
      "Ġtalk": 4022,
      "Ġrelationship": 4023,
      "çł´": 4024,
      "Ġshows": 4025,
      "Ġconcer": 4026,
      "Ġbrain": 4027,
      "apter": 4028,
      "Ġpri": 4029,
      "ming": 4030,
      "åĪ©çĶ¨": 4031,
      "æŁĵ": 4032,
      "OP": 4033,
      "comes": 4034,
      "åįĬ": 4035,
      "Ġassert": 4036,
      "æĿ¿": 4037,
      "odes": 4038,
      "å½¢æĪĲ": 4039,
      "Ġequation": 4040,
      "éĢĻ": 4041,
      "alt": 4042,
      "ãĢĤâĢĿ": 4043,
      "ç´¢": 4044,
      "Ġrequest": 4045,
      "Ġlive": 4046,
      "å®Ĺ": 4047,
      "Ġconcept": 4048,
      "è¡Įä¸º": 4049,
      "Ġsepar": 4050,
      "ĠMe": 4051,
      "çĻ»": 4052,
      "Ġentire": 4053,
      "Ġcountries": 4054,
      "Ġnormal": 4055,
      "Ġmeet": 4056,
      "ites": 4057,
      "Ġbar": 4058,
      "à®": 4059,
      "èī¯": 4060,
      "Ġitself": 4061,
      "åıĤèĢĥ": 4062,
      "Ġdefin": 4063,
      "Ġproduction": 4064,
      "Ġdocument": 4065,
      "ç«¯": 4066,
      "Ġaccording": 4067,
      "osis": 4068,
      "uments": 4069,
      "Ġever": 4070,
      "ä»ĭ": 4071,
      "Ġfactors": 4072,
      "istics": 4073,
      "odel": 4074,
      "Test": 4075,
      "Ġconsidered": 4076,
      "itary": 4077,
      "Ġarticle": 4078,
      "Ġchem": 4079,
      "Ġengine": 4080,
      "Ġquick": 4081,
      "åĬ³": 4082,
      "ĠMin": 4083,
      "ĠPer": 4084,
      "hib": 4085,
      "met": 4086,
      "Ġmarket": 4087,
      "åħ§": 4088,
      "Ġnational": 4089,
      "CR": 4090,
      "Ġloss": 4091,
      ".w": 4092,
      "Ġpaper": 4093,
      "Ġshown": 4094,
      "ĠOct": 4095,
      "æĪĳåĽ½": 4096,
      "-in": 4097,
      "================": 4098,
      "ottom": 4099,
      "Ġge": 4100,
      "å°Ħ": 4101,
      "hold": 4102,
      "éģİ": 4103,
      "Ġeff": 4104,
      "ĠHis": 4105,
      "Ġseason": 4106,
      "ĠAug": 4107,
      "ä¸¾": 4108,
      "enc": 4109,
      "Ġdru": 4110,
      "Ġrelated": 4111,
      "log": 4112,
      "çĿ£": 4113,
      "State": 4114,
      "Ġgra": 4115,
      "éĢ²": 4116,
      "];Ċ": 4117,
      "ĠKing": 4118,
      "Ġaction": 4119,
      "ached": 4120,
      "äº¿": 4121,
      "Ġyet": 4122,
      "çº¢": 4123,
      "Ġimage": 4124,
      "Ġanim": 4125,
      "(Ċ": 4126,
      "Ġwriting": 4127,
      "Ġalmost": 4128,
      "æ¥Ń": 4129,
      "Ġwon": 4130,
      "leep": 4131,
      "Ġchall": 4132,
      "åĽ½éĻħ": 4133,
      "çķ¶": 4134,
      "Ġspeed": 4135,
      "è®¤ä¸º": 4136,
      "Ġmonths": 4137,
      "Ġdoing": 4138,
      "ster": 4139,
      "æĭ©": 4140,
      "unt": 4141,
      "ĠNot": 4142,
      "ä¸įèĥ½": 4143,
      "rs": 4144,
      "ises": 4145,
      "rown": 4146,
      "ç½Ĺ": 4147,
      "Ġobtain": 4148,
      "åıĮ": 4149,
      "Ġbegan": 4150,
      "Ġknowledge": 4151,
      "umb": 4152,
      "çĵ": 4153,
      "ait": 4154,
      "_H": 4155,
      "Ġrecogn": 4156,
      "Class": 4157,
      "ores": 4158,
      "åįļ": 4159,
      "itted": 4160,
      "Ġinput": 4161,
      "Ġstyle": 4162,
      "me": 4163,
      "anks": 4164,
      "Ġaccept": 4165,
      "Ġhours": 4166,
      "istance": 4167,
      ".C": 4168,
      "lor": 4169,
      "Ġconsum": 4170,
      ".\"Ċ": 4171,
      "Ġsett": 4172,
      "ĠBritish": 4173,
      "....": 4174,
      "Ġhom": 4175,
      "word": 4176,
      "Ġrights": 4177,
      ".e": 4178,
      "OM": 4179,
      "Ġclaim": 4180,
      "åºĶå½ĵ": 4181,
      "ĠAct": 4182,
      "Ġaverage": 4183,
      "Ġpattern": 4184,
      "é¤": 4185,
      "Ġupon": 4186,
      "Pl": 4187,
      "istory": 4188,
      "ocation": 4189,
      "è´Ń": 4190,
      "Ġwhite": 4191,
      "Ġclose": 4192,
      "å¿ħé¡»": 4193,
      "å°ĩ": 4194,
      "Ġintrodu": 4195,
      "sych": 4196,
      "è¿ľ": 4197,
      "Ġprovided": 4198,
      "Ġmor": 4199,
      "ç½ĳç»ľ": 4200,
      "'ll": 4201,
      "ĠGeneral": 4202,
      "Ġsympt": 4203,
      "åħ¨åĽ½": 4204,
      "Ġstates": 4205,
      "ĠAmerica": 4206,
      "ĠGr": 4207,
      "çµĲ": 4208,
      "\"ĊĊ": 4209,
      "ä¸įæĺ¯": 4210,
      "åįĥ": 4211,
      "ĠHar": 4212,
      "âĪ": 4213,
      "æĩ": 4214,
      "Ġens": 4215,
      "Ġpolitical": 4216,
      "è®²": 4217,
      "(d": 4218,
      "._": 4219,
      "iles": 4220,
      "Ġlinks": 4221,
      "View": 4222,
      "error": 4223,
      "(b": 4224,
      "En": 4225,
      "Ġcoll": 4226,
      "apan": 4227,
      "çĶ±äºİ": 4228,
      "ĠSoc": 4229,
      "ixed": 4230,
      "è¡Įä¸ļ": 4231,
      "å©": 4232,
      "enge": 4233,
      "Ġevidence": 4234,
      "æĬĹ": 4235,
      "ĠPart": 4236,
      "Ġarch": 4237,
      "çŁŃ": 4238,
      "\\n": 4239,
      "Ġface": 4240,
      "uffer": 4241,
      "ï¼Įä»ĸ": 4242,
      "ç¨³": 4243,
      "uel": 4244,
      "ç¬¬ä¸ī": 4245,
      "åįł": 4246,
      "æ³ķå¾ĭ": 4247,
      "Ġphot": 4248,
      "Ġphysical": 4249,
      "çĶ»": 4250,
      "åĶ®": 4251,
      "hel": 4252,
      "âĢĻre": 4253,
      "Ġgrowth": 4254,
      "Ġevents": 4255,
      "ada": 4256,
      "Ġscience": 4257,
      "Ġbuilt": 4258,
      "Ġdeveloped": 4259,
      "Ġach": 4260,
      "Ġbring": 4261,
      "çŁ¥è¯Ĩ": 4262,
      "ese": 4263,
      "andom": 4264,
      "Ġincreased": 4265,
      "ike": 4266,
      "stance": 4267,
      "Ġpressure": 4268,
      "èµĽ": 4269,
      "Ġflo": 4270,
      "è¾ĵ": 4271,
      "Ġseem": 4272,
      "Ġcomes": 4273,
      "ging": 4274,
      "Ġregion": 4275,
      "çĳ": 4276,
      "anced": 4277,
      "ĠMat": 4278,
      "OL": 4279,
      "-n": 4280,
      "TD": 4281,
      "Ġpractice": 4282,
      "Ġparts": 4283,
      "æķĻåŃ¦": 4284,
      "åĩ»": 4285,
      "rench": 4286,
      "Ġcontext": 4287,
      "Ġpack": 4288,
      "Ġreview": 4289,
      "Ġprofess": 4290,
      "è¡¨ç¤º": 4291,
      "ĠApr": 4292,
      "Ġcompet": 4293,
      "èĪª": 4294,
      "Ġdifference": 4295,
      "IV": 4296,
      "åĬŁèĥ½": 4297,
      "cial": 4298,
      "Ġsequ": 4299,
      "æĶ¯æĮģ": 4300,
      "é¦¬": 4301,
      "iding": 4302,
      "éĵģ": 4303,
      "Ġgrad": 4304,
      "uary": 4305,
      "Ġappear": 4306,
      "olean": 4307,
      "Ġresearc": 4308,
      "Ġ?": 4309,
      "å¢ŀåĬł": 4310,
      "Key": 4311,
      "(c": 4312,
      "With": 4313,
      "ç¥¨": 4314,
      "ä»į": 4315,
      "éĢģ": 4316,
      "Over": 4317,
      "ences": 4318,
      "pper": 4319,
      "åº§": 4320,
      "æıĲåĩº": 4321,
      "éĢīæĭ©": 4322,
      "Ġsat": 4323,
      "åıĳçİ°": 4324,
      "Is": 4325,
      "Ġquality": 4326,
      "eters": 4327,
      "Ġproducts": 4328,
      "Ġmedical": 4329,
      "ivil": 4330,
      "åĪ¤": 4331,
      "å¸Į": 4332,
      "uk": 4333,
      "_w": 4334,
      "na": 4335,
      "ony": 4336,
      "rm": 4337,
      "file": 4338,
      "ana": 4339,
      "éģĭ": 4340,
      "ä¸Ģå®ļ": 4341,
      "lin": 4342,
      "illi": 4343,
      "è´§": 4344,
      "çģ£": 4345,
      "ening": 4346,
      "Add": 4347,
      "çĪ±": 4348,
      "Ġexplain": 4349,
      "å¦Ĥä½ķ": 4350,
      "!ĊĊ": 4351,
      "ĠVal": 4352,
      "izing": 4353,
      "æİ¢": 4354,
      "Ġsquare": 4355,
      "Ġcamp": 4356,
      "Ġtaking": 4357,
      "ĠAg": 4358,
      "çĪ¶": 4359,
      "å®ŀæĸ½": 4360,
      "Ġexc": 4361,
      "Ġetc": 4362,
      "Ġrecomm": 4363,
      "Ġincluded": 4364,
      "Ġ:=": 4365,
      "æīĺ": 4366,
      "æ¿Ģ": 4367,
      "å¼Ĥ": 4368,
      "minist": 4369,
      "Ġresources": 4370,
      "ç·ļ": 4371,
      "Ġago": 4372,
      "Ġsense": 4373,
      "rig": 4374,
      "bon": 4375,
      "Node": 4376,
      "CL": 4377,
      "ĠDr": 4378,
      "Ġservices": 4379,
      "èĩªå·±çļĦ": 4380,
      "Ġpie": 4381,
      "abel": 4382,
      "æ¤į": 4383,
      "_IN": 4384,
      "ector": 4385,
      "Ġliter": 4386,
      "Ġder": 4387,
      "ensive": 4388,
      "çĭ¬": 4389,
      "Ġ/**Ċ": 4390,
      "ĠRet": 4391,
      "Ġfilm": 4392,
      "ĠHealth": 4393,
      "iate": 4394,
      "mb": 4395,
      "Ġregard": 4396,
      "è®Ń": 4397,
      "Ġreceived": 4398,
      "é»Ħ": 4399,
      "Ġelement": 4400,
      "è¨Ń": 4401,
      "Ġop": 4402,
      "attle": 4403,
      "Not": 4404,
      "ĠAp": 4405,
      "Ġapproach": 4406,
      "ĠDes": 4407,
      "ä»ĺ": 4408,
      "[]": 4409,
      "Ġdraw": 4410,
      "é¼": 4411,
      "Ġimplement": 4412,
      "åºŃ": 4413,
      "æľ¨": 4414,
      "Ġclos": 4415,
      "ĠPres": 4416,
      "æ°´å¹³": 4417,
      "Ġstructure": 4418,
      "âĢĿçļĦ": 4419,
      "éĵ¾": 4420,
      "(),": 4421,
      "æĶ¿æ²»": 4422,
      "elling": 4423,
      "ãĢĤè¿Ļ": 4424,
      "ä¸»ä¹ī": 4425,
      "Ġinstead": 4426,
      "å£°": 4427,
      "rack": 4428,
      "è½½": 4429,
      "åħµ": 4430,
      "çĸ«": 4431,
      "Map": 4432,
      "Ġissues": 4433,
      "åĲ¸": 4434,
      "(m": 4435,
      "Ġprobably": 4436,
      "Ġavoid": 4437,
      "Ġhistor": 4438,
      "Ġplayers": 4439,
      "å¸Ŀ": 4440,
      "Ġthird": 4441,
      "iment": 4442,
      "è³ĩ": 4443,
      "_RE": 4444,
      "link": 4445,
      "Ġexact": 4446,
      "ults": 4447,
      "åħ¸": 4448,
      "hing": 4449,
      "Ġhost": 4450,
      "pri": 4451,
      "fect": 4452,
      "nection": 4453,
      "ä¸Ńå¤®": 4454,
      "Ġstarted": 4455,
      "ĠJu": 4456,
      "Ġdefined": 4457,
      "å¼Ģåıĳ": 4458,
      "Par": 4459,
      "asc": 4460,
      "Ġnight": 4461,
      "Ġdecl": 4462,
      "åį«": 4463,
      "èŃ¦": 4464,
      "Ġgetting": 4465,
      "å·Ŀ": 4466,
      "æĿĲæĸĻ": 4467,
      "Ġrelig": 4468,
      "æĤ£": 4469,
      "éĢĢ": 4470,
      "Ġactivities": 4471,
      "Ġcoun": 4472,
      "ĠOF": 4473,
      "mselves": 4474,
      "_L": 4475,
      "è®¾å¤ĩ": 4476,
      "orks": 4477,
      "Ġfactor": 4478,
      "fully": 4479,
      "Ġcondition": 4480,
      "Ġstat": 4481,
      "ĠMy": 4482,
      "wo": 4483,
      "Ġheight": 4484,
      "Ġcomplete": 4485,
      "erson": 4486,
      "Ġsimply": 4487,
      "raction": 4488,
      "like": 4489,
      "äº§çĶŁ": 4490,
      "Ġindex": 4491,
      "Ġdidn": 4492,
      "çĶ·": 4493,
      "ä¸ªäºº": 4494,
      "________": 4495,
      "ĠIS": 4496,
      "Ġtax": 4497,
      "å®ĮæĪĲ": 4498,
      "ç¬¦": 4499,
      "point": 4500,
      "Ġ},Ċ": 4501,
      "Ġnames": 4502,
      "estern": 4503,
      "duc": 4504,
      "Ġthemselves": 4505,
      "ament": 4506,
      "iqu": 4507,
      "æĿ¡ä»¶": 4508,
      "Ġdire": 4509,
      "é»ĳ": 4510,
      "Ġattempt": 4511,
      "OS": 4512,
      "Ġlonger": 4513,
      "ocal": 4514,
      "Ġstudent": 4515,
      "Ġflu": 4516,
      "CE": 4517,
      "äºĳ": 4518,
      "rest": 4519,
      "ä¿ĥ": 4520,
      "Ġmom": 4521,
      "ç§ĳæĬĢ": 4522,
      "Ġprote": 4523,
      "adem": 4524,
      "æ¨Ĥ": 4525,
      "Ġwin": 4526,
      "ĠAustral": 4527,
      "OD": 4528,
      "Ġrev": 4529,
      "Ġsymptoms": 4530,
      ".D": 4531,
      "æ¨¡å¼ı": 4532,
      "æ¯Ĵ": 4533,
      "åĽº": 4534,
      "ibrary": 4535,
      "çĮ®": 4536,
      "ography": 4537,
      "Ġfire": 4538,
      "rust": 4539,
      "Ġproperty": 4540,
      ")(": 4541,
      "Ġplants": 4542,
      "Ġlimit": 4543,
      "astic": 4544,
      "éĨ": 4545,
      "è´£ä»»": 4546,
      "Ġeasy": 4547,
      "Ġsomeone": 4548,
      "è§ī": 4549,
      "(self": 4550,
      "Ġliving": 4551,
      "Ġcommand": 4552,
      "Ġreduce": 4553,
      "ç¼º": 4554,
      "åľ°æĸ¹": 4555,
      "Ġdevice": 4556,
      "Ġlines": 4557,
      "å¢ŀéķ¿": 4558,
      "Ġinstance": 4559,
      "é£İéĻ©": 4560,
      "user": 4561,
      "ĉĉĉĉĉ": 4562,
      "era": 4563,
      "eds": 4564,
      "rive": 4565,
      "æĶ»": 4566,
      "Ġindepend": 4567,
      "ML": 4568,
      "æĵį": 4569,
      "ino": 4570,
      "Ġadded": 4571,
      "ä¹ĭéĹ´": 4572,
      "Ġfamil": 4573,
      ".ap": 4574,
      "Ġjo": 4575,
      "Ġbad": 4576,
      "Ġremov": 4577,
      "nown": 4578,
      "Ġsex": 4579,
      "ç»§": 4580,
      "lished": 4581,
      "Ġprinc": 4582,
      "oles": 4583,
      "ä½ĵç³»": 4584,
      "æİĪ": 4585,
      "Ġgas": 4586,
      "Ġmatter": 4587,
      "Ġorigin": 4588,
      "éĺ¶": 4589,
      "Ġissue": 4590,
      "Time": 4591,
      "pre": 4592,
      "Ġhor": 4593,
      "æį¢": 4594,
      "æľīåħ³": 4595,
      "cret": 4596,
      "çīĮ": 4597,
      "åĲĪä½ľ": 4598,
      "Ġcomputer": 4599,
      "çĽ®æłĩ": 4600,
      "ĠJapan": 4601,
      "pace": 4602,
      "Ġoutput": 4603,
      "Ġwent": 4604,
      "Ġability": 4605,
      "Ġlooking": 4606,
      "æ´¾": 4607,
      "Ġmiss": 4608,
      "Ġglobal": 4609,
      "éģ¸": 4610,
      "éĩĳèŀį": 4611,
      "icles": 4612,
      "å®ŀéĻħ": 4613,
      "éĹľ": 4614,
      "ned": 4615,
      "ĠPublic": 4616,
      "Ġload": 4617,
      "trans": 4618,
      "ĠMarch": 4619,
      "Ġgreater": 4620,
      "itude": 4621,
      "æĶ¹éĿ©": 4622,
      "èĸ": 4623,
      "ride": 4624,
      "rate": 4625,
      "ĉstruct": 4626,
      "Ġprovides": 4627,
      "Ġlove": 4628,
      "ä»¥ä¸Ĭ": 4629,
      "ĠAdd": 4630,
      "Ġparam": 4631,
      "Ġnecessary": 4632,
      "ç£": 4633,
      "æįŁ": 4634,
      "Ġdeal": 4635,
      "IF": 4636,
      "Ġonline": 4637,
      "rong": 4638,
      "äºĪ": 4639,
      "éĢ£": 4640,
      "ä»¥ä¸ĭ": 4641,
      "Ġbelieve": 4642,
      "../../../../": 4643,
      "è§£åĨ³": 4644,
      "No": 4645,
      "icon": 4646,
      "Ġmap": 4647,
      "pose": 4648,
      "ï¼Įä¸º": 4649,
      "è¯ī": 4650,
      "Ġsearch": 4651,
      "Ġmaintain": 4652,
      "åī¯": 4653,
      "Ġmodern": 4654,
      "Ġdistance": 4655,
      "cd": 4656,
      "ety": 4657,
      "Ġassess": 4658,
      "Ġmach": 4659,
      "ä¹ĭä¸Ģ": 4660,
      "At": 4661,
      "å°½": 4662,
      "é²": 4663,
      "EX": 4664,
      "ç¨±": 4665,
      "Ġste": 4666,
      "lev": 4667,
      "Ġpopular": 4668,
      "Ġuses": 4669,
      "amin": 4670,
      "Ġmicro": 4671,
      "Ġheld": 4672,
      "-y": 4673,
      "abor": 4674,
      "New": 4675,
      "},Ċ": 4676,
      "Ġmethods": 4677,
      "config": 4678,
      "Ġmultiple": 4679,
      "Ġunit": 4680,
      "lim": 4681,
      "åħ°": 4682,
      "å¨ģ": 4683,
      "åģľ": 4684,
      "Ġunderstanding": 4685,
      "Ġstress": 4686,
      "Ġpict": 4687,
      "Ġtemperature": 4688,
      "imately": 4689,
      "book": 4690,
      "Ġcomment": 4691,
      "atives": 4692,
      "EL": 4693,
      "Ġregular": 4694,
      "CC": 4695,
      "åĬĩ": 4696,
      "Ġexpected": 4697,
      "Ġtakes": 4698,
      "å¼Ģå±ķ": 4699,
      "Ġvideo": 4700,
      "xy": 4701,
      "sec": 4702,
      "æıĲåįĩ": 4703,
      "Ġsun": 4704,
      "Ġcross": 4705,
      "Ġsuff": 4706,
      "ellow": 4707,
      "dom": 4708,
      "ĠPe": 4709,
      "_ST": 4710,
      "ä¸´": 4711,
      "Ġskills": 4712,
      "Ġstatus": 4713,
      "wise": 4714,
      "Ġclimate": 4715,
      "Ġnature": 4716,
      "Ġsomet": 4717,
      "ðĿ": 4718,
      "åĪ°äºĨ": 4719,
      "Man": 4720,
      "Ġelements": 4721,
      "oring": 4722,
      "çĽ´æİ¥": 4723,
      "èģ¯": 4724,
      "oper": 4725,
      "Ġsurv": 4726,
      "ĠBar": 4727,
      "ç¸£": 4728,
      "Ġreading": 4729,
      "ĠFeb": 4730,
      "åłĤ": 4731,
      "Ġoptions": 4732,
      "Ġtown": 4733,
      "ĠĠĠĠĠĠĠĠĠĠ": 4734,
      "ä¸ĢæŃ¥": 4735,
      "Ġdouble": 4736,
      "Ġexpression": 4737,
      "åĬłå¼º": 4738,
      "Ġnut": 4739,
      "ĠBo": 4740,
      "Ġslow": 4741,
      "ners": 4742,
      "ama": 4743,
      "Ġcou": 4744,
      "oud": 4745,
      "éĽ»è¦ĸ": 4746,
      "è®¡ç®Ĺ": 4747,
      "fl": 4748,
      "åģ¥åº·": 4749,
      "èİ·å¾Ĺ": 4750,
      "ÂłÂłÂł": 4751,
      "Ġled": 4752,
      "aries": 4753,
      "Ġver": 4754,
      "Ġparents": 4755,
      "-based": 4756,
      "èĩªçĦ¶": 4757,
      "onents": 4758,
      "å¾Īå¤ļ": 4759,
      "å¥½çļĦ": 4760,
      "Text": 4761,
      "Ġrat": 4762,
      "Ġsection": 4763,
      "ĠMc": 4764,
      "plication": 4765,
      "èĥĮ": 4766,
      "aging": 4767,
      "Ġfront": 4768,
      "Ġcontinue": 4769,
      "stitute": 4770,
      "PL": 4771,
      "amples": 4772,
      "Ġstd": 4773,
      "Ġoutside": 4774,
      "ederal": 4775,
      "ui": 4776,
      "elt": 4777,
      "Ġeffective": 4778,
      "]ĊĊ": 4779,
      "ĠRev": 4780,
      "active": 4781,
      "èĥ½å¤Ł": 4782,
      "ham": 4783,
      "èįī": 4784,
      "Ġrefer": 4785,
      "((": 4786,
      "Ġdescribed": 4787,
      "yth": 4788,
      "Ġreported": 4789,
      "list": 4790,
      "Ġtree": 4791,
      "æ¹ĸ": 4792,
      "ccording": 4793,
      "å»¶": 4794,
      "ĠSee": 4795,
      "æ¾": 4796,
      "æķ¸": 4797,
      "Ġfunctions": 4798,
      "éľĢæ±Ĥ": 4799,
      "Ġoil": 4800,
      "ĠCor": 4801,
      "å®Ī": 4802,
      "å¹³åı°": 4803,
      "Ġexcept": 4804,
      "æ±ī": 4805,
      "Ġuseful": 4806,
      "Ġheav": 4807,
      "Ġeconomic": 4808,
      "Ġfem": 4809,
      "aul": 4810,
      "estion": 4811,
      "å¹´çļĦ": 4812,
      "\";Ċ": 4813,
      "Ġdetermine": 4814,
      "èı¯": 4815,
      "erous": 4816,
      "æľīæķĪ": 4817,
      "Ġmagn": 4818,
      "ĠUs": 4819,
      "ĠCON": 4820,
      "Ġopportun": 4821,
      "çĶ²": 4822,
      "PI": 4823,
      "Ġrecent": 4824,
      "CI": 4825,
      "display": 4826,
      "ĠÐ": 4827,
      "èĨ": 4828,
      "ĠThen": 4829,
      "è¯į": 4830,
      "ĠSm": 4831,
      "Ġ);Ċ": 4832,
      "ĠIndia": 4833,
      "Ġpersonal": 4834,
      "Ġsn": 4835,
      "Ġproduce": 4836,
      "ran": 4837,
      "Ġinj": 4838,
      "Ġrout": 4839,
      "ĠOR": 4840,
      "sk": 4841,
      "å·¦": 4842,
      "Comp": 4843,
      "èĭ¥": 4844,
      "äº«": 4845,
      "é¢ĨåŁŁ": 4846,
      "Ġconduct": 4847,
      "aches": 4848,
      "ä½Ļ": 4849,
      "Ġgreen": 4850,
      "çľ¼": 4851,
      "Ġq": 4852,
      "Ġdiet": 4853,
      "Ġmessage": 4854,
      "Ġconstant": 4855,
      "arily": 4856,
      "Ġir": 4857,
      "Ġlate": 4858,
      "Ġden": 4859,
      "roid": 4860,
      "align": 4861,
      "Info": 4862,
      "ĠEarth": 4863,
      "Ġinitial": 4864,
      ".A": 4865,
      "èĭı": 4866,
      "rapy": 4867,
      "ĠTrans": 4868,
      "Ġseems": 4869,
      "Â°": 4870,
      "ailed": 4871,
      "éĢĲ": 4872,
      "ij": 4873,
      "Ġsong": 4874,
      "erve": 4875,
      "Ġmechan": 4876,
      "Ġroot": 4877,
      "Ġmanagement": 4878,
      "Ġvert": 4879,
      "Path": 4880,
      "ĠJune": 4881,
      "ched": 4882,
      "ĠSept": 4883,
      "state": 4884,
      "ades": 4885,
      "het": 4886,
      "Ġball": 4887,
      "Ġincreasing": 4888,
      "ĠFrench": 4889,
      "aily": 4890,
      "ii": 4891,
      "Ġincludes": 4892,
      "ague": 4893,
      "itation": 4894,
      "Ġnegative": 4895,
      "hood": 4896,
      "ä¹°": 4897,
      "Ġquite": 4898,
      "ĠSystem": 4899,
      "Ġestablished": 4900,
      "Ġperm": 4901,
      "/c": 4902,
      "Ġsound": 4903,
      "rick": 4904,
      "Ġanything": 4905,
      "Ġinside": 4906,
      "used": 4907,
      "iences": 4908,
      "bra": 4909,
      "vere": 4910,
      "Ġwebs": 4911,
      "iber": 4912,
      "endif": 4913,
      "æŀ¶": 4914,
      "ecause": 4915,
      "äº²": 4916,
      "éĥ½æĺ¯": 4917,
      "!--": 4918,
      "plate": 4919,
      "uit": 4920,
      "Ġexec": 4921,
      "Ġbehavior": 4922,
      "çŃĶ": 4923,
      "Ġcompan": 4924,
      "Ġcustom": 4925,
      "æ§": 4926,
      "rote": 4927,
      "Index": 4928,
      "Ġmeaning": 4929,
      "åĨł": 4930,
      "Ġdisplay": 4931,
      "Ġeval": 4932,
      "From": 4933,
      "Ġcard": 4934,
      "ĠAugust": 4935,
      "Ġsometimes": 4936,
      "ĠJanuary": 4937,
      "Ġfeet": 4938,
      "Ġinvestig": 4939,
      "Ġbasic": 4940,
      "mm": 4941,
      "ï¼Įä¸Ģ": 4942,
      "lands": 4943,
      "æİª": 4944,
      "augh": 4945,
      "gram": 4946,
      "reng": 4947,
      "cember": 4948,
      "Ġtravel": 4949,
      "ĠApril": 4950,
      "åį±": 4951,
      "ĠJew": 4952,
      "Ġadditional": 4953,
      "Ġdesigned": 4954,
      "De": 4955,
      "Ġfeed": 4956,
      "EE": 4957,
      "ç»¼": 4958,
      "pi": 4959,
      "Ġ)Ċ": 4960,
      "curity": 4961,
      "ĠTest": 4962,
      "ĠSw": 4963,
      "Ġinvolved": 4964,
      "Ġ*/ĊĊ": 4965,
      "Ġtraining": 4966,
      "æ±¡": 4967,
      "<li": 4968,
      "Ph": 4969,
      "Ġfat": 4970,
      "Ġresearchers": 4971,
      "Ġnetwork": 4972,
      "Ġextrem": 4973,
      "top": 4974,
      "Ġclean": 4975,
      "Ġmaterials": 4976,
      "Ġconsist": 4977,
      "Ġdemon": 4978,
      "bb": 4979,
      "(struct": 4980,
      "Ġcontact": 4981,
      "_DE": 4982,
      "Ġproduced": 4983,
      "Ġcontains": 4984,
      "osition": 4985,
      "_V": 4986,
      "rim": 4987,
      "Ġaff": 4988,
      "istry": 4989,
      "Ġbehind": 4990,
      "ĠEl": 4991,
      "æĭĽ": 4992,
      ".add": 4993,
      "ĠCounty": 4994,
      "Ġisn": 4995,
      "Ġdiagn": 4996,
      "Ġviol": 4997,
      "éĮ": 4998,
      "aly": 4999,
      "Ġexerc": 5000,
      "icens": 5001,
      "ï¼Įä»İ": 5002,
      "Ġdog": 5003,
      "CD": 5004,
      "pack": 5005,
      "ework": 5006,
      "Ġminutes": 5007,
      "Ġperformance": 5008,
      "æ¶Īè´¹": 5009,
      "éĻĦ": 5010,
      "Ġformer": 5011,
      "å·¥ä¸ļ": 5012,
      "atab": 5013,
      "*Ċ": 5014,
      "Ġdefault": 5015,
      "Ġanimals": 5016,
      "oo": 5017,
      "ĠRuss": 5018,
      "roy": 5019,
      "ANT": 5020,
      "ĠApp": 5021,
      "vey": 5022,
      "Ġmother": 5023,
      "Ġroom": 5024,
      "rought": 5025,
      "éĢłæĪĲ": 5026,
      "/**Ċ": 5027,
      "ovember": 5028,
      "Ġund": 5029,
      "where": 5030,
      "ĠSch": 5031,
      "orage": 5032,
      "qrt": 5033,
      "äº¦": 5034,
      "ights": 5035,
      "Ġindustry": 5036,
      "Ġmember": 5037,
      "éĿŀå¸¸": 5038,
      "Ġtrying": 5039,
      "atively": 5040,
      "iven": 5041,
      "ï¼Įå¯¹": 5042,
      "ĠWest": 5043,
      "Ġfru": 5044,
      "Ġheat": 5045,
      ".M": 5046,
      "ä¿ĿéĻ©": 5047,
      "ĠDis": 5048,
      "body": 5049,
      "Config": 5050,
      "();ĊĊ": 5051,
      "Ġlack": 5052,
      "Ġdeep": 5053,
      "Ġshare": 5054,
      "rial": 5055,
      "Ġcompared": 5056,
      "åĢº": 5057,
      "åħ©": 5058,
      "ä»·åĢ¼": 5059,
      "egin": 5060,
      "æī¾": 5061,
      "ĠGl": 5062,
      "åĮĹäº¬": 5063,
      "from": 5064,
      "ï¼Įä¸¦": 5065,
      "è½»": 5066,
      "éĩįçĤ¹": 5067,
      "æĮīçħ§": 5068,
      "ris": 5069,
      "è®¡åĪĴ": 5070,
      "opyright": 5071,
      "Ġthroughout": 5072,
      "ĠWhile": 5073,
      "Ġmulti": 5074,
      "Des": 5075,
      "æ¶²": 5076,
      "Ġsold": 5077,
      "see": 5078,
      "è§ĦåĪĴ": 5079,
      "urg": 5080,
      "åı³": 5081,
      "ä¼¼": 5082,
      "Ġquant": 5083,
      "annel": 5084,
      "Ġdistributed": 5085,
      "Ġdecre": 5086,
      "Ġemer": 5087,
      "å°ģ": 5088,
      "atform": 5089,
      "ĠDepartment": 5090,
      "Ġbox": 5091,
      "ç¸½": 5092,
      "aid": 5093,
      "åħ¶ä¸Ń": 5094,
      "Ġconfig": 5095,
      "ĠJuly": 5096,
      "Ġcenter": 5097,
      "airs": 5098,
      "map": 5099,
      "ares": 5100,
      "ç½ª": 5101,
      "test": 5102,
      "ĠChar": 5103,
      "ele": 5104,
      "ä¼Ĭ": 5105,
      "é½": 5106,
      "ç²¾ç¥ŀ": 5107,
      "ĠGerman": 5108,
      "Ġschools": 5109,
      "Ġfav": 5110,
      "Ġnothing": 5111,
      "char": 5112,
      "Ġindividuals": 5113,
      "Ġhope": 5114,
      "Ġwhose": 5115,
      "Ġgames": 5116,
      "ulations": 5117,
      "Element": 5118,
      "ordin": 5119,
      "ĠList": 5120,
      "ĠCity": 5121,
      "edia": 5122,
      "Event": 5123,
      "å¾ħ": 5124,
      "ä½ľåĵģ": 5125,
      "éĵ¶è¡Į": 5126,
      "Ġanc": 5127,
      "Ġwidth": 5128,
      "Ġaccom": 5129,
      "éĩĩçĶ¨": 5130,
      "imer": 5131,
      "Ġcat": 5132,
      "ç»¿": 5133,
      "Ġjava": 5134,
      "çĹĩ": 5135,
      "ocks": 5136,
      "Ġwalk": 5137,
      "ishing": 5138,
      "#if": 5139,
      "rew": 5140,
      "Ġapplication": 5141,
      "abled": 5142,
      "å¤ĸéĥ¨": 5143,
      "#endif": 5144,
      "çĶ³è¯·": 5145,
      "Ġskin": 5146,
      "ĠMus": 5147,
      "Ġwall": 5148,
      "åĺ": 5149,
      "Ġcaused": 5150,
      "çµĦ": 5151,
      "ĠMore": 5152,
      "æĺ¥": 5153,
      "æķĻå¸Ī": 5154,
      "come": 5155,
      "/j": 5156,
      "çļĩ": 5157,
      "åģĩ": 5158,
      "èĺŃ": 5159,
      "æ²Ļ": 5160,
      "unk": 5161,
      "åį´": 5162,
      "Ġfarm": 5163,
      "çĦ¡": 5164,
      "æĹħ": 5165,
      "Ġprec": 5166,
      "éħ¸": 5167,
      "ceed": 5168,
      "æ¦Ĥ": 5169,
      "ĠDav": 5170,
      "mar": 5171,
      "ĠNe": 5172,
      "ĠSol": 5173,
      "Of": 5174,
      "Ġsleep": 5175,
      "Ġforms": 5176,
      "Ġprior": 5177,
      "rief": 5178,
      "Ġtherefore": 5179,
      "Ġnode": 5180,
      "ube": 5181,
      "Ġmemory": 5182,
      "ĠGet": 5183,
      "One": 5184,
      "å±ĭ": 5185,
      "ĠIndian": 5186,
      "Ġord": 5187,
      "ĠMon": 5188,
      "Ġmonth": 5189,
      "-M": 5190,
      "Ġmedic": 5191,
      "bum": 5192,
      "Ġgives": 5193,
      "ĠMath": 5194,
      "Ġbal": 5195,
      "gn": 5196,
      "********************************": 5197,
      "cos": 5198,
      "Ġpatient": 5199,
      "asons": 5200,
      "Ġnamed": 5201,
      "åĲĪåĲĮ": 5202,
      "åĽ°": 5203,
      "Ġ((": 5204,
      "_g": 5205,
      "âĢ¦âĢ¦": 5206,
      "ĠArt": 5207,
      "Ġasked": 5208,
      "Size": 5209,
      "çĶļ": 5210,
      "arr": 5211,
      "eks": 5212,
      "äº¤æĺĵ": 5213,
      "Ġlost": 5214,
      "ä¼łç»Ł": 5215,
      "ha": 5216,
      "Ġbackground": 5217,
      "_data": 5218,
      "-type": 5219,
      "ĠFirst": 5220,
      "ocol": 5221,
      "ronic": 5222,
      "Read": 5223,
      "Ġmatch": 5224,
      "irm": 5225,
      "Ġdemonstr": 5226,
      ",åľ¨": 5227,
      "reet": 5228,
      "ĠClass": 5229,
      "table": 5230,
      "Ġaud": 5231,
      "Ġlarger": 5232,
      "Requ": 5233,
      "å´": 5234,
      "Ġï": 5235,
      "_name": 5236,
      "Ġclin": 5237,
      "èĻŁ": 5238,
      "ĠSeptember": 5239,
      "field": 5240,
      "æİ¨è¿Ľ": 5241,
      "ĠChina": 5242,
      "æī©": 5243,
      "Ġmovement": 5244,
      "Ġfather": 5245,
      "äº¤éĢļ": 5246,
      "perty": 5247,
      "æĹ¶åĢĻ": 5248,
      "cles": 5249,
      "uge": 5250,
      "éģ¿": 5251,
      "åĬ³åĬ¨": 5252,
      "ä¿Ŀéļľ": 5253,
      "Ġestim": 5254,
      "urrent": 5255,
      "ĠHer": 5256,
      "è¿Ŀ": 5257,
      "){": 5258,
      "Ġprograms": 5259,
      "çİ°åľ¨": 5260,
      "ĠNow": 5261,
      "éĽ·": 5262,
      "Ġprimary": 5263,
      "éĴĪ": 5264,
      "Ġtheory": 5265,
      "Ġsil": 5266,
      "Ġcover": 5267,
      "ashing": 5268,
      "ĠRec": 5269,
      "hematics": 5270,
      "alled": 5271,
      "æ±½": 5272,
      "SP": 5273,
      "Ġdistribution": 5274,
      "ç¾ħ": 5275,
      "èĵ": 5276,
      "æī§è¡Į": 5277,
      "Ġgenerally": 5278,
      "Ġofficial": 5279,
      "hest": 5280,
      "åħ¨éĿ¢": 5281,
      "ä¹Łæĺ¯": 5282,
      "='": 5283,
      "éģĶ": 5284,
      "Ġthus": 5285,
      "aur": 5286,
      "iers": 5287,
      "isions": 5288,
      "Ġhimself": 5289,
      "ĠSer": 5290,
      "ĠResearch": 5291,
      "ufact": 5292,
      "Ġpolicy": 5293,
      "\")": 5294,
      "Ġ+=": 5295,
      "Ġmedia": 5296,
      "haps": 5297,
      "Ġrule": 5298,
      "acity": 5299,
      "Def": 5300,
      "ç´Ħ": 5301,
      "Context": 5302,
      "å§Ķåĳĺ": 5303,
      "ptr": 5304,
      "å¸®": 5305,
      "Out": 5306,
      "idge": 5307,
      "ithm": 5308,
      "èģļ": 5309,
      "ĠFound": 5310,
      "è¿Ļæł·": 5311,
      "do": 5312,
      "Ġwindow": 5313,
      "ĠOctober": 5314,
      "Ġpsych": 5315,
      "ĠAc": 5316,
      ",ĊĊ": 5317,
      "/*Ċ": 5318,
      "][": 5319,
      "æĢ§çļĦ": 5320,
      "Ġlives": 5321,
      "Ġwrong": 5322,
      "Ġtold": 5323,
      "æĿ¥çļĦ": 5324,
      "ĠDecember": 5325,
      "ĠSet": 5326,
      "unch": 5327,
      "æ¯Ķè¾ĥ": 5328,
      "rast": 5329,
      "Ġpoor": 5330,
      "Ġdirectly": 5331,
      "Ġsociety": 5332,
      "issions": 5333,
      "Ġconcent": 5334,
      "oe": 5335,
      "Ġroad": 5336,
      "åıĺåĮĸ": 5337,
      "è¿½": 5338,
      "abit": 5339,
      "è¡Ĺ": 5340,
      "aged": 5341,
      "abet": 5342,
      "ĠScience": 5343,
      "ĠPresident": 5344,
      "æķ£": 5345,
      "olic": 5346,
      "è¿Ļç§į": 5347,
      "èµĦæĸĻ": 5348,
      "```": 5349,
      "Ġhealthy": 5350,
      "ĠĠĠĠĠĠĠĠĠĠĠĠĠĠĠĠĠĠĠĠĠĠĠĠĠĠĠ": 5351,
      "Ġmilitary": 5352,
      "éĶ®": 5353,
      "Ġdate": 5354,
      "çłģ": 5355,
      "Ġserious": 5356,
      "iforn": 5357,
      "ternet": 5358,
      "cil": 5359,
      "assert": 5360,
      "Ġ=>": 5361,
      "Ġearli": 5362,
      "ĠEduc": 5363,
      "ĠDef": 5364,
      "åºĵ": 5365,
      "Ġsoon": 5366,
      "åª": 5367,
      "BC": 5368,
      "pped": 5369,
      "çĶŁæĢģ": 5370,
      "åħ³äºİ": 5371,
      "rame": 5372,
      "Ġpropos": 5373,
      "undred": 5374,
      "ç»¼åĲĪ": 5375,
      "alle": 5376,
      "Ġinternational": 5377,
      ".ĊĊĊ": 5378,
      "å¯¼èĩ´": 5379,
      "Ġsus": 5380,
      "èĽ": 5381,
      "Ġson": 5382,
      "-A": 5383,
      "_R": 5384,
      "ç¨®": 5385,
      "å½¢å¼ı": 5386,
      "Ġdirection": 5387,
      "Ġstreng": 5388,
      "room": 5389,
      "æľºåĪ¶": 5390,
      "Ġidentify": 5391,
      "oto": 5392,
      "Ġaltern": 5393,
      "éĩĬ": 5394,
      "rees": 5395,
      "ç»ĵæŀľ": 5396,
      "çİ°ä»£": 5397,
      "Ġformula": 5398,
      "ped": 5399,
      "plies": 5400,
      "break": 5401,
      "Ġadj": 5402,
      "Ġculture": 5403,
      "ï¼ĮçĶ±": 5404,
      "YPE": 5405,
      "Ġvirt": 5406,
      "Ġgain": 5407,
      "Field": 5408,
      "åħ¨çĲĥ": 5409,
      "MS": 5410,
      "ĠĠĠĠĊ": 5411,
      "Ġsample": 5412,
      "zz": 5413,
      "Ġmath": 5414,
      "_type": 5415,
      "Ġprice": 5416,
      "ç»ĵåĲĪ": 5417,
      "ä¸įæĸŃ": 5418,
      "ieved": 5419,
      "ĠLet": 5420,
      "Ġwrote": 5421,
      "Ġgir": 5422,
      "coming": 5423,
      "ĠNovember": 5424,
      "ĠRed": 5425,
      "åĿĹ": 5426,
      "ç§¯æŀģ": 5427,
      "Equ": 5428,
      ".P": 5429,
      "æĪĲç«ĭ": 5430,
      "Ġstay": 5431,
      "mat": 5432,
      "ĠCons": 5433,
      "create": 5434,
      "Ġreleased": 5435,
      "æĸ°çļĦ": 5436,
      "æĺ¯åĲ¦": 5437,
      "æĿ¾": 5438,
      "-st": 5439,
      "time": 5440,
      "äºĨè§£": 5441,
      "åľŁåľ°": 5442,
      "rep": 5443,
      "ancy": 5444,
      "ros": 5445,
      "'Ċ": 5446,
      "*/": 5447,
      "æĢ¥": 5448,
      "Ġlocated": 5449,
      "ĠOther": 5450,
      "Ġoption": 5451,
      "Ġelectric": 5452,
      "gar": 5453,
      "]\\": 5454,
      "Ġscreen": 5455,
      "Ġfriend": 5456,
      "Ġactive": 5457,
      "Ġvia": 5458,
      "Ġborn": 5459,
      "UE": 5460,
      "æĢĿæĥ³": 5461,
      "mary": 5462,
      "ĠAng": 5463,
      "Ġbooks": 5464,
      "IR": 5465,
      "Ġobjects": 5466,
      "åĸľ": 5467,
      "_r": 5468,
      "$ĊĊ": 5469,
      "Ġfast": 5470,
      "Ã¡": 5471,
      "è¨Ī": 5472,
      "ĉs": 5473,
      "æİ¨åĬ¨": 5474,
      "Ġappropri": 5475,
      "Ġsymbol": 5476,
      "çµ±": 5477,
      "Ġalthough": 5478,
      "Ġearth": 5479,
      "change": 5480,
      "ä¸ļåĬ¡": 5481,
      "åħ±åĲĮ": 5482,
      "/l": 5483,
      "Ġmid": 5484,
      "Ġfeatures": 5485,
      "Ġeasily": 5486,
      "Ġchemical": 5487,
      "ĠFrom": 5488,
      "ruary": 5489,
      "ifornia": 5490,
      "Ġbuy": 5491,
      "known": 5492,
      "æ°ı": 5493,
      "Ġcompanies": 5494,
      "ä¼¤": 5495,
      "ç¾İåľĭ": 5496,
      "å¸ģ": 5497,
      "ondon": 5498,
      "Ġparticularly": 5499,
      "Ġsrc": 5500,
      "å¥ĩ": 5501,
      "éģĩ": 5502,
      "Ġfun": 5503,
      "ATE": 5504,
      "uous": 5505,
      "Ġallows": 5506,
      ".)": 5507,
      "no": 5508,
      "éĻĨ": 5509,
      "Ġvalid": 5510,
      "};ĊĊ": 5511,
      "ico": 5512,
      "Ġhyp": 5513,
      "ĠHigh": 5514,
      "ĠEuropean": 5515,
      "æĮ¥": 5516,
      "Ġcauses": 5517,
      "Ġstra": 5518,
      "ĠInter": 5519,
      "ç©ºéĹ´": 5520,
      "çĲĨè®º": 5521,
      "é¢ĳ": 5522,
      "ancial": 5523,
      "<div": 5524,
      "Ġten": 5525,
      "ASS": 5526,
      "è·µ": 5527,
      "Ġapprox": 5528,
      "è¿ĲåĬ¨": 5529,
      "Ġthreat": 5530,
      "Ġprep": 5531,
      "ĠEm": 5532,
      "Ġspread": 5533,
      "-Ċ": 5534,
      "èĮĥåĽ´": 5535,
      "Ð¾": 5536,
      "Ġeyes": 5537,
      "è¾¾åĪ°": 5538,
      "Ġmoment": 5539,
      "Ġfight": 5540,
      "Ġanaly": 5541,
      "çĶ¨äºİ": 5542,
      "æĹ¶ä»£": 5543,
      "respond": 5544,
      "Ġeverything": 5545,
      "æ¬§": 5546,
      "ĠYour": 5547,
      "Ġzero": 5548,
      "ĠSu": 5549,
      "/d": 5550,
      "cks": 5551,
      "Ġprogress": 5552,
      "âĢĿãĢĤ": 5553,
      "prot": 5554,
      "ãĢĤä½Ĩ": 5555,
      "ĠCenter": 5556,
      "Ġfigure": 5557,
      "Ġrot": 5558,
      "Ġhot": 5559,
      "Ġcred": 5560,
      "ĠInternational": 5561,
      "Ġquickly": 5562,
      "åĪ»": 5563,
      "Ġsaw": 5564,
      "source": 5565,
      "Ġreve": 5566,
      ".apache": 5567,
      "izes": 5568,
      "Ġimmed": 5569,
      "Ġattention": 5570,
      "urb": 5571,
      "Ġhy": 5572,
      "Ġones": 5573,
      "Ġbenefits": 5574,
      "rupt": 5575,
      "oke": 5576,
      "ĉf": 5577,
      "ford": 5578,
      "ç»Ŀ": 5579,
      "resh": 5580,
      "ifier": 5581,
      "æ¶ī": 5582,
      "ersion": 5583,
      "gor": 5584,
      "II": 5585,
      "Ġdamage": 5586,
      "Ġeat": 5587,
      "åŁ¹åħ»": 5588,
      "client": 5589,
      "æ´ĭ": 5590,
      "ĠAnt": 5591,
      "amb": 5592,
      "ART": 5593,
      "èĹı": 5594,
      "é¸": 5595,
      "Ġvisit": 5596,
      "Ġrunning": 5597,
      "https": 5598,
      "External": 5599,
      "åĲī": 5600,
      "IO": 5601,
      "oken": 5602,
      "Trans": 5603,
      "Ġconstruct": 5604,
      "Ġdied": 5605,
      "Ġsoil": 5606,
      "ica": 5607,
      "');Ċ": 5608,
      "len": 5609,
      "Ġtrack": 5610,
      "efore": 5611,
      "æĮģç»Ń": 5612,
      "Be": 5613,
      "ç»ĥ": 5614,
      "oice": 5615,
      "pite": 5616,
      "Ġadminist": 5617,
      "aker": 5618,
      "ä¸Ģç§į": 5619,
      "Ġthous": 5620,
      "Ġful": 5621,
      "åľĺ": 5622,
      "Ġvariety": 5623,
      "init": 5624,
      "uate": 5625,
      "Ġ\\[": 5626,
      "Ġwild": 5627,
      "åºĶè¯¥": 5628,
      "board": 5629,
      "åŁºéĩĳ": 5630,
      "Ġvolume": 5631,
      "ĠUse": 5632,
      "æĻºèĥ½": 5633,
      "ulate": 5634,
      "å¥ĸ": 5635,
      "ĠFin": 5636,
      "ä½Ľ": 5637,
      "è¿Ľä¸ĢæŃ¥": 5638,
      "irit": 5639,
      "term": 5640,
      "æ°¸": 5641,
      "box": 5642,
      "-S": 5643,
      "=\\": 5644,
      "åīĤ": 5645,
      "men": 5646,
      "å°ļ": 5647,
      "Ġwood": 5648,
      "erved": 5649,
      "ä¸Ńåįİ": 5650,
      "ä¹ħ": 5651,
      "äººåı£": 5652,
      "æłĳ": 5653,
      "Ġround": 5654,
      "éĩİ": 5655,
      "Ġpick": 5656,
      "Ġdegree": 5657,
      "bit": 5658,
      "Or": 5659,
      "rated": 5660,
      "ĉint": 5661,
      "Ġdim": 5662,
      ".st": 5663,
      "Ġweeks": 5664,
      "Ġ\"\"": 5665,
      "Ġmatrix": 5666,
      "æ³¨æĦı": 5667,
      "è¿Ļä¸Ģ": 5668,
      "Ġbroad": 5669,
      "Ġmention": 5670,
      "Ġenvironmental": 5671,
      "Ġnuc": 5672,
      "'d": 5673,
      "Ġcapt": 5674,
      "_set": 5675,
      "æĿĤ": 5676,
      "Ġsolve": 5677,
      "Ġpan": 5678,
      "Ġarray": 5679,
      "Ġaccur": 5680,
      "åİŁåĽł": 5681,
      "sect": 5682,
      "å¹¼": 5683,
      "Ġsources": 5684,
      "æ··": 5685,
      "è¶³çĲĥ": 5686,
      "Ġensure": 5687,
      "Up": 5688,
      "å¥Ĺ": 5689,
      "Ġunique": 5690,
      "Ġjud": 5691,
      ".util": 5692,
      "åĢŁ": 5693,
      "aint": 5694,
      "bor": 5695,
      "ä¸¤ä¸ª": 5696,
      "Ġstri": 5697,
      "åıªæľī": 5698,
      "Ġrandom": 5699,
      "item": 5700,
      "ĠHere": 5701,
      "PS": 5702,
      "Ġvariable": 5703,
      "Ġencou": 5704,
      "See": 5705,
      "è´·": 5706,
      "ĠAssoci": 5707,
      "Ġfootball": 5708,
      "ãĥ»": 5709,
      "ï¼ĮæĪĳä»¬": 5710,
      "ensity": 5711,
      "Ġbeginning": 5712,
      "Ġdepend": 5713,
      "Ġdetails": 5714,
      "-year": 5715,
      "ken": 5716,
      "éĿł": 5717,
      "MA": 5718,
      "TH": 5719,
      "ulated": 5720,
      "aling": 5721,
      "Ġstream": 5722,
      "ç´§": 5723,
      "ĠPat": 5724,
      "ä»»ä½ķ": 5725,
      "ç»ıèĲ¥": 5726,
      "ĠPark": 5727,
      "Ġproperties": 5728,
      "Ġlocation": 5729,
      "ï¼ļâĢľ": 5730,
      "refore": 5731,
      "Ġmiddle": 5732,
      "omb": 5733,
      "è¿Ľåħ¥": 5734,
      "gl": 5735,
      "ä¸Ĭæµ·": 5736,
      "Ġwebsite": 5737,
      "æİªæĸ½": 5738,
      "Ġgoes": 5739,
      "ĠCalifornia": 5740,
      "eta": 5741,
      "ç§Ģ": 5742,
      "åıĸå¾Ĺ": 5743,
      "ĠTHE": 5744,
      "é¾Ļ": 5745,
      "Ġideas": 5746,
      "Ġrepe": 5747,
      "osing": 5748,
      "rove": 5749,
      "ille": 5750,
      "åĭĻ": 5751,
      "Ġplayed": 5752,
      "ani": 5753,
      "Ġstation": 5754,
      "åºĹ": 5755,
      "æĵįä½ľ": 5756,
      "Ġbirth": 5757,
      "info": 5758,
      "èµĦéĩĳ": 5759,
      "ĠCour": 5760,
      "Ġtowards": 5761,
      "å¸Ń": 5762,
      "Ġhelps": 5763,
      "ï¼Įå°±": 5764,
      "åĨ·": 5765,
      "éĦ": 5766,
      "ĠMost": 5767,
      "éĺ¶æ®µ": 5768,
      "Ġcentral": 5769,
      "æĸ¹æ¡Ī": 5770,
      "éĶĻ": 5771,
      "atabase": 5772,
      "\"}": 5773,
      "Ġinstit": 5774,
      "Ð°": 5775,
      "åı¥": 5776,
      "ayer": 5777,
      "Ġleading": 5778,
      "åĲ¬": 5779,
      "æĪĲæľ¬": 5780,
      "å®¶åºŃ": 5781,
      "omin": 5782,
      "vention": 5783,
      "ricult": 5784,
      "Ġwind": 5785,
      "hol": 5786,
      "ouch": 5787,
      "Ġbur": 5788,
      "Ġkids": 5789,
      "ĉm": 5790,
      "ĠĠĠĠĠĠĠĠĠĠĠĠĠĠ": 5791,
      "inct": 5792,
      "actions": 5793,
      "ĠFind": 5794,
      "å¡Ķ": 5795,
      "ç«ŀ": 5796,
      "ĠHouse": 5797,
      "ospital": 5798,
      "ĠMany": 5799,
      "Ġhundred": 5800,
      "Ġnorth": 5801,
      "Ġkill": 5802,
      "å¤ı": 5803,
      "Ġsort": 5804,
      "_v": 5805,
      "HT": 5806,
      "\")Ċ": 5807,
      "Ġsides": 5808,
      "Ġhands": 5809,
      "åĵª": 5810,
      "Item": 5811,
      "ervation": 5812,
      "Ġassum": 5813,
      "åĮºåŁŁ": 5814,
      "å®Ŀ": 5815,
      "åĲĦç§į": 5816,
      "Ġplaces": 5817,
      "Log": 5818,
      "Ġleaders": 5819,
      "Ġsituation": 5820,
      "(a": 5821,
      "Ġfollowed": 5822,
      "æ°ĳæĹı": 5823,
      "onal": 5824,
      "ilter": 5825,
      "ected": 5826,
      "ĠSince": 5827,
      "è¿ĩç¨ĭä¸Ń": 5828,
      "Ġproced": 5829,
      "Ġtiss": 5830,
      "Ġsal": 5831,
      "That": 5832,
      "é¢Ĩå¯¼": 5833,
      "ï¼ģ": 5834,
      "èŃ°": 5835,
      "åĤ¨": 5836,
      "],Ċ": 5837,
      "Ġweb": 5838,
      "Ġscale": 5839,
      ",ä½Ĩ": 5840,
      "displaystyle": 5841,
      "cast": 5842,
      "èĻ½": 5843,
      "HO": 5844,
      "Ġcurrently": 5845,
      "Now": 5846,
      "_dev": 5847,
      "TER": 5848,
      "å¾ĹåĪ°": 5849,
      "Ġmanufact": 5850,
      "Ġax": 5851,
      "ä¸ºäºĨ": 5852,
      "ï¼Īï¼ī": 5853,
      "ĠÃĹ": 5854,
      "è¿ĺæĺ¯": 5855,
      "Ġbab": 5856,
      "æĭ¿": 5857,
      "æĸ½å·¥": 5858,
      "ĠInstitute": 5859,
      "Ġbool": 5860,
      "Ġcontroll": 5861,
      "Ġdivid": 5862,
      "ĠOf": 5863,
      "åĶĲ": 5864,
      "Reg": 5865,
      "useum": 5866,
      "åħ¬åħ±": 5867,
      "Ġbound": 5868,
      "Ġoffer": 5869,
      "è½¯": 5870,
      "è´Łè´£": 5871,
      "ï¼į": 5872,
      "æĬ¥åĳĬ": 5873,
      "Ġtests": 5874,
      "Ġbecomes": 5875,
      "Ġangle": 5876,
      "ĠPress": 5877,
      "Ġunits": 5878,
      "UM": 5879,
      "Form": 5880,
      "éĲ": 5881,
      "/or": 5882,
      "CK": 5883,
      "Ġnews": 5884,
      "Ed": 5885,
      "########": 5886,
      "Ġdecision": 5887,
      "pan": 5888,
      "åĤ³": 5889,
      "ABLE": 5890,
      "_G": 5891,
      "ĠHol": 5892,
      "PA": 5893,
      "istor": 5894,
      "ä¹ĭåĲİ": 5895,
      "joy": 5896,
      "Ġthinking": 5897,
      "Ġplayer": 5898,
      "Ġselect": 5899,
      "ĠEngland": 5900,
      "input": 5901,
      "oes": 5902,
      "ocr": 5903,
      "ç¥ĸ": 5904,
      "åħ·ä½ĵ": 5905,
      "çĬ¯": 5906,
      "ĠWilli": 5907,
      "aught": 5908,
      "Ġchalleng": 5909,
      "Ġcop": 5910,
      "ç«¥": 5911,
      "ĠJust": 5912,
      "Ġtend": 5913,
      "çļ®": 5914,
      "Ġscientists": 5915,
      "Ġestablish": 5916,
      "èģĮä¸ļ": 5917,
      "Ġpret": 5918,
      "aled": 5919,
      "Ġsouth": 5920,
      "Ġarr": 5921,
      "sqrt": 5922,
      "æĽ¸": 5923,
      "æķ°åŃĹ": 5924,
      "åīĩ": 5925,
      "df": 5926,
      "ĠLaw": 5927,
      "çļĦå¤§": 5928,
      "unsigned": 5929,
      "more": 5930,
      "Ġtask": 5931,
      "çĶŁçī©": 5932,
      "Ġ$$\\": 5933,
      "Ġcivil": 5934,
      "èĥŀ": 5935,
      "éħĴ": 5936,
      "Ġalbum": 5937,
      "æĦ¿": 5938,
      "è·Ŀ": 5939,
      "Ġeth": 5940,
      "Ġlimited": 5941,
      "Ġpredict": 5942,
      "çĶ¨æĪ·": 5943,
      "éĸĢ": 5944,
      "Ġgave": 5945,
      "è§Ħæ¨¡": 5946,
      "ĠÂłĠÂł": 5947,
      "_O": 5948,
      "/m": 5949,
      "Ġgoal": 5950,
      "å®ŀè·µ": 5951,
      "åī§": 5952,
      "ara": 5953,
      "orthern": 5954,
      "çĽŁ": 5955,
      "outhern": 5956,
      "éĢı": 5957,
      "Ġshall": 5958,
      "erg": 5959,
      "åıĥèĢĥ": 5960,
      "ä½³": 5961,
      "ä»·æł¼": 5962,
      "ĠFebruary": 5963,
      "reek": 5964,
      "ios": 5965,
      "ï¼Įä½¿": 5966,
      "Ġast": 5967,
      "down": 5968,
      "iency": 5969,
      "æĪĲåĬŁ": 5970,
      "Ġforces": 5971,
      "Ġdead": 5972,
      "å®ļçļĦ": 5973,
      "Table": 5974,
      "Ġsafety": 5975,
      "Ġwide": 5976,
      "çįİ": 5977,
      "pret": 5978,
      "ĠLondon": 5979,
      "Ġlinear": 5980,
      "ä¼°": 5981,
      "actory": 5982,
      "ĠFoundation": 5983,
      "è©²": 5984,
      "but": 5985,
      "æĸĩä»¶": 5986,
      "ĉcase": 5987,
      "Ġsea": 5988,
      "Ġfeature": 5989,
      "ĠSub": 5990,
      "pid": 5991,
      "æĶ¶åħ¥": 5992,
      "ç¢³": 5993,
      "Ġdang": 5994,
      "å»£": 5995,
      "Ġallowed": 5996,
      "arrow": 5997,
      "IZ": 5998,
      ";</": 5999,
      "Ġmount": 6000,
      "Ġnil": 6001,
      "(this": 6002,
      "Ġexactly": 6003,
      ">&": 6004,
      ",å¹¶": 6005,
      "çĶļèĩ³": 6006,
      "}$$": 6007,
      "Ġrules": 6008,
      "Ġsecurity": 6009,
      "ç§Ł": 6010,
      "Ġanti": 6011,
      "åĵĪ": 6012,
      "Ġemot": 6013,
      "Ġextra": 6014,
      "Ġ{ĊĊ": 6015,
      "æ°§": 6016,
      "rael": 6017,
      "Ġnation": 6018,
      "Ġworked": 6019,
      "Ġlargest": 6020,
      "ech": 6021,
      "ĠAre": 6022,
      "DA": 6023,
      "Ġchanged": 6024,
      "Ġsafe": 6025,
      "åĳ³": 6026,
      "èĥ½æºĲ": 6027,
      "Ġautom": 6028,
      ".is": 6029,
      "éĴ¢": 6030,
      "api": 6031,
      "Ġdark": 6032,
      "Ġsup": 6033,
      "Ġcateg": 6034,
      "èĩº": 6035,
      "Ġsmaller": 6036,
      "Ġcollect": 6037,
      "ĠMich": 6038,
      "Ġrequires": 6039,
      "Ġaware": 6040,
      "éĴ±": 6041,
      "Ġcit": 6042,
      "itect": 6043,
      "ä¼¯": 6044,
      "çī¹åĪ«": 6045,
      "ãĢĭï¼Į": 6046,
      "Ġeveryone": 6047,
      "Ġï¼Į": 6048,
      "ĠEast": 6049,
      "çŃ¾": 6050,
      "Le": 6051,
      "Ġcm": 6052,
      "-to": 6053,
      "Ġstore": 6054,
      "å²ģ": 6055,
      "Ad": 6056,
      "Ġmodels": 6057,
      "èīºæľ¯": 6058,
      "gress": 6059,
      "æķĳ": 6060,
      "Ġcapital": 6061,
      "Ġdrink": 6062,
      "Override": 6063,
      "stant": 6064,
      "urt": 6065,
      "Ġleave": 6066,
      "Ġmag": 6067,
      "Ġshape": 6068,
      "å½Ĵ": 6069,
      "rab": 6070,
      "Ġwarm": 6071,
      ">>": 6072,
      "_W": 6073,
      "çĴ": 6074,
      "ords": 6075,
      "Ġdisco": 6076,
      "çķ«": 6077,
      "ĠAir": 6078,
      "åĲ¯": 6079,
      "è·Ł": 6080,
      "é£ŀ": 6081,
      "After": 6082,
      "ildren": 6083,
      "åıĤä¸İ": 6084,
      "Ġmut": 6085,
      "Ġtools": 6086,
      "Ġreference": 6087,
      "public": 6088,
      "Ġcarbon": 6089,
      "å¡ŀ": 6090,
      "âĳ": 6091,
      "æĺİç¡®": 6092,
      "ĠPhil": 6093,
      "section": 6094,
      "è¶ħè¿ĩ": 6095,
      "Ġwoman": 6096,
      "ï¼ĽĊ": 6097,
      "Ġtransport": 6098,
      "pu": 6099,
      "orge": 6100,
      "message": 6101,
      "Ġbuff": 6102,
      "ĠRiver": 6103,
      "ä¿ĥè¿Ľ": 6104,
      "Ġhon": 6105,
      "Ġperfect": 6106,
      "åħ¬éĩĮ": 6107,
      "ĠĠĊ": 6108,
      "](#": 6109,
      "æĺ¯åľ¨": 6110,
      "Array": 6111,
      "ãĢĤä»ĸ": 6112,
      "Ġtraditional": 6113,
      "æĽ´å¤ļ": 6114,
      "stream": 6115,
      "Att": 6116,
      "èªª": 6117,
      "Ġvers": 6118,
      "inese": 6119,
      "otal": 6120,
      "Ġcompl": 6121,
      "ĠSan": 6122,
      "åĨ²": 6123,
      "Ġcorrespond": 6124,
      "é¦Ĩ": 6125,
      "vis": 6126,
      "åİĤ": 6127,
      "Ġdeveloping": 6128,
      "ĠSim": 6129,
      "æ¯Ľ": 6130,
      "ĠST": 6131,
      "uman": 6132,
      "oub": 6133,
      "è´«": 6134,
      "éĻĪ": 6135,
      "æ¥¼": 6136,
      "Ġbasis": 6137,
      ";&": 6138,
      "Ġteachers": 6139,
      "è¯Ĺ": 6140,
      "ĠLevel": 6141,
      "Ġexamples": 6142,
      "Ġfa": 6143,
      "Ġdaily": 6144,
      "å¯¦": 6145,
      "net": 6146,
      "å¾ŀ": 6147,
      "Ent": 6148,
      "Ġstage": 6149,
      "Ġcosts": 6150,
      "ĨĴ": 6151,
      "äºĨä¸Ģ": 6152,
      "Ġgrowing": 6153,
      "Sub": 6154,
      "ĠCopyright": 6155,
      "())": 6156,
      "ci": 6157,
      "Ġmis": 6158,
      "ĠEducation": 6159,
      "Ġappropriate": 6160,
      "Ġrow": 6161,
      "Ġeye": 6162,
      "ï¼īãĢģ": 6163,
      "çĶµåŃĲ": 6164,
      "Message": 6165,
      "ections": 6166,
      "Us": 6167,
      "ĠCanada": 6168,
      "ç¯Ģ": 6169,
      ".</": 6170,
      "Ġmole": 6171,
      "Ġrock": 6172,
      "sin": 6173,
      "UP": 6174,
      "heet": 6175,
      "plit": 6176,
      "Ġ...": 6177,
      "ĠSk": 6178,
      "æ£®": 6179,
      "Request": 6180,
      "size": 6181,
      "pty": 6182,
      "éģĹ": 6183,
      "ï¼ŁĊ": 6184,
      "ï¼ĮæľĢ": 6185,
      "udd": 6186,
      "Ġrelease": 6187,
      "ĠHistory": 6188,
      "ĠChurch": 6189,
      "Ġbacter": 6190,
      "Inter": 6191,
      "Ġanimal": 6192,
      "with": 6193,
      "reate": 6194,
      "ĠRepublic": 6195,
      "å¿ĥçĲĨ": 6196,
      "Ġmoved": 6197,
      "ocket": 6198,
      "åħ³éĶ®": 6199,
      "Ġhighly": 6200,
      "æĿŁ": 6201,
      "åĢĳ": 6202,
      "ï¼Įå¦Ĥ": 6203,
      "Ġfiles": 6204,
      "äº¡": 6205,
      "Ġrates": 6206,
      "nov": 6207,
      "Ġlif": 6208,
      "Ġcritical": 6209,
      "ĠAfrica": 6210,
      "åŃ¦éĻ¢": 6211,
      "=\"../../../../": 6212,
      "èĻĳ": 6213,
      "Rec": 6214,
      "rome": 6215,
      "Ġwanted": 6216,
      "Ġscientific": 6217,
      "andler": 6218,
      "æ´Ľ": 6219,
      "ï¼īãĢĤ": 6220,
      "Ġreach": 6221,
      "èªŀ": 6222,
      "argin": 6223,
      "ÂłÂłÂłÂłÂłÂłÂłÂł": 6224,
      "ĠGovern": 6225,
      "ĠAlso": 6226,
      "Ġaim": 6227,
      "ĠCollege": 6228,
      "ç³»åĪĹ": 6229,
      "ashington": 6230,
      "tings": 6231,
      "Ġfish": 6232,
      "=\"#": 6233,
      "ĠFl": 6234,
      "Ġimages": 6235,
      "$\\": 6236,
      "äººæīį": 6237,
      "æĢİ": 6238,
      "å©ļ": 6239,
      "ç½²": 6240,
      "èģĶç½ĳ": 6241,
      "Ġsteps": 6242,
      "Ġcompletely": 6243,
      "Ġvill": 6244,
      "å³¶": 6245,
      "Ġmill": 6246,
      "Ġchoose": 6247,
      "Ġcollection": 6248,
      "nav": 6249,
      "ĠDist": 6250,
      "event": 6251,
      "Ġlabor": 6252,
      "åĸ®": 6253,
      "Ġimag": 6254,
      "Ġpresident": 6255,
      "Ġbrought": 6256,
      "Ġwond": 6257,
      "åªĴ": 6258,
      "Ġachieve": 6259,
      "Ġmer": 6260,
      "Ġ**": 6261,
      "ynam": 6262,
      "Ġreli": 6263,
      "Ġhar": 6264,
      "Ġborder": 6265,
      "ĠDec": 6266,
      "osure": 6267,
      "ync": 6268,
      "éļıçĿĢ": 6269,
      "ees": 6270,
      "Ġcoming": 6271,
      "Ġharm": 6272,
      "else": 6273,
      "object": 6274,
      "Ġshowed": 6275,
      "åĨ³å®ļ": 6276,
      "...Ċ": 6277,
      "image": 6278,
      "Stream": 6279,
      "['": 6280,
      "âĢĻll": 6281,
      "Ġpurpose": 6282,
      "AA": 6283,
      "è¡¨çİ°": 6284,
      "Ġwatch": 6285,
      "æı¡": 6286,
      "åĮ»çĸĹ": 6287,
      "Ġcarry": 6288,
      "irt": 6289,
      "Ġprotein": 6290,
      "Ġvict": 6291,
      "æĪı": 6292,
      "Ġhyd": 6293,
      "(\\": 6294,
      "åı¶": 6295,
      "ï¼Įå¤§": 6296,
      "ONT": 6297,
      "Ġlaws": 6298,
      "')": 6299,
      "æ³ķéĻ¢": 6300,
      "éĤ£ä¹Ī": 6301,
      "function": 6302,
      "Ġfinancial": 6303,
      "ĊĊĊĊ": 6304,
      "Ġdrug": 6305,
      "Ġmoving": 6306,
      "åĶ±": 6307,
      "CP": 6308,
      "Ġperformed": 6309,
      "Ġalt": 6310,
      "isms": 6311,
      "Ġbul": 6312,
      "Ġvariables": 6313,
      "part": 6314,
      "ĠAlthough": 6315,
      "icip": 6316,
      "Ġaspect": 6317,
      "äºĭä»¶": 6318,
      ".js": 6319,
      "eline": 6320,
      "Ġgets": 6321,
      "çĸ¾": 6322,
      "ĠCoun": 6323,
      "Ġvirus": 6324,
      "ï¼Įåı¯ä»¥": 6325,
      "erver": 6326,
      "ĠNOT": 6327,
      "ç¯ĩ": 6328,
      "Ġforward": 6329,
      "ĠNet": 6330,
      "æł¸å¿ĥ": 6331,
      "Ġwid": 6332,
      "ĠDay": 6333,
      "å°İ": 6334,
      "Ġindependent": 6335,
      "ç¨ĭåºı": 6336,
      "æĦĽ": 6337,
      "Ġdemand": 6338,
      "Ġneigh": 6339,
      "Ġnote": 6340,
      "ĠBlack": 6341,
      "eler": 6342,
      "Ġstar": 6343,
      "æĸ¹åĲĳ": 6344,
      "omy": 6345,
      "å¸«": 6346,
      "ĠForm": 6347,
      "Ġessential": 6348,
      "anch": 6349,
      ",ä¸į": 6350,
      "ĠRead": 6351,
      "Ġnearly": 6352,
      "fs": 6353,
      "atin": 6354,
      "ä¸°": 6355,
      "æĸĹ": 6356,
      "ç´ļ": 6357,
      "Ġhit": 6358,
      "ĠLa": 6359,
      "Ġvit": 6360,
      "Ġenjoy": 6361,
      "Ġactual": 6362,
      "çĽĸ": 6363,
      "ban": 6364,
      "åĽłç´ł": 6365,
      "encies": 6366,
      "Ġcompar": 6367,
      "ĉpublic": 6368,
      "ĠAfrican": 6369,
      "æ±ł": 6370,
      "ä¿ĿæĮģ": 6371,
      "Ġrespond": 6372,
      "åĨľæĿĳ": 6373,
      "Ġremains": 6374,
      "ÃŃ": 6375,
      "Ġ()": 6376,
      "result": 6377,
      "atur": 6378,
      "iques": 6379,
      "Ġtransfer": 6380,
      "Ġdriv": 6381,
      "Ġusers": 6382,
      "å·¨": 6383,
      "fort": 6384,
      "iance": 6385,
      "ests": 6386,
      "Ġearlier": 6387,
      "_info": 6388,
      "Ġfair": 6389,
      "Ġsevere": 6390,
      "Ġmix": 6391,
      "iated": 6392,
      "åĨľä¸ļ": 6393,
      "Ġprop": 6394,
      "ĉt": 6395,
      "Ġmale": 6396,
      "åĪ¶éĢł": 6397,
      "Ġpassed": 6398,
      "bed": 6399,
      "Ġsec": 6400,
      "Ġformat": 6401,
      "Ã³": 6402,
      "Ġfriends": 6403,
      "igation": 6404,
      "ĠAnsw": 6405,
      "Ġacid": 6406,
      "#####": 6407,
      "æĤ£èĢħ": 6408,
      "ĠCong": 6409,
      "AV": 6410,
      "_get": 6411,
      "Ġeight": 6412,
      "Ġstatement": 6413,
      "Ġign": 6414,
      "å¥¥": 6415,
      "level": 6416,
      "ç¾©": 6417,
      "Count": 6418,
      "Ġcand": 6419,
      "-cent": 6420,
      "åĬ±": 6421,
      "è¯¯": 6422,
      "èĪ¹": 6423,
      "ĠInc": 6424,
      "Ġcareer": 6425,
      "ael": 6426,
      "lements": 6427,
      "Ġthrow": 6428,
      "Ġparty": 6429,
      "ports": 6430,
      "çģµ": 6431,
      "Build": 6432,
      "æĸĩçĮ®": 6433,
      "Ġpurch": 6434,
      "åį·": 6435,
      "Ġoperations": 6436,
      "ä¾ĭå¦Ĥ": 6437,
      "Ġmiles": 6438,
      "Ġstru": 6439,
      "Ġ\\[[@": 6440,
      "usion": 6441,
      "append": 6442,
      "Ġfit": 6443,
      "ala": 6444,
      "Ġsequence": 6445,
      "Bar": 6446,
      "Ġtransl": 6447,
      "Ġremove": 6448,
      "éĽ¶": 6449,
      "lict": 6450,
      "che": 6451,
      "Ġapplied": 6452,
      "-e": 6453,
      "åĪĨå¸ĥ": 6454,
      "Ġremember": 6455,
      "////////////////": 6456,
      "Ġconvert": 6457,
      "Ġfamilies": 6458,
      "rage": 6459,
      "itable": 6460,
      "Ġconstruction": 6461,
      "Ðµ": 6462,
      "oma": 6463,
      "Ġcolumn": 6464,
      "addr": 6465,
      "å¹ħ": 6466,
      "Ġalone": 6467,
      "ERR": 6468,
      "å®ĮåĸĦ": 6469,
      "ĠTr": 6470,
      "æľīéĻĲ": 6471,
      "æİĮ": 6472,
      "Ġlegal": 6473,
      "apping": 6474,
      "abetes": 6475,
      "ĠPre": 6476,
      "ship": 6477,
      "Ġcontinued": 6478,
      "func": 6479,
      "%,": 6480,
      "Ġforest": 6481,
      "å±¬": 6482,
      "Ġsolid": 6483,
      "Ġprofessional": 6484,
      "éĢĶ": 6485,
      "Ġdry": 6486,
      "share": 6487,
      "ĠDi": 6488,
      "ĠPost": 6489,
      "Ġcommit": 6490,
      "è§ĦèĮĥ": 6491,
      "Ġcommer": 6492,
      "Ġformed": 6493,
      "Ġinfluence": 6494,
      "pha": 6495,
      "ĠEven": 6496,
      "ĠVol": 6497,
      "entially": 6498,
      "url": 6499,
      "cean": 6500,
      "Ġworth": 6501,
      "èĦĳ": 6502,
      "çļĦéĩįè¦ģ": 6503,
      "NU": 6504,
      "Ġresource": 6505,
      "Ġreturned": 6506,
      ".length": 6507,
      "Ġband": 6508,
      "èĶ": 6509,
      "åıĹåĪ°": 6510,
      "ibly": 6511,
      "éĽ»å½±": 6512,
      "è¿Ĳè¡Į": 6513,
      "ĠData": 6514,
      "ogen": 6515,
      "Ġinteresting": 6516,
      "ĠTechn": 6517,
      "Ġmode": 6518,
      "è®¾æĸ½": 6519,
      "Ġveh": 6520,
      "Ġanyone": 6521,
      "Ġblue": 6522,
      "èĴĻ": 6523,
      "gr": 6524,
      "stain": 6525,
      "izations": 6526,
      "Ġchoice": 6527,
      "èĦ±": 6528,
      "Ġrecently": 6529,
      "Ġcontribut": 6530,
      "è¾ĸ": 6531,
      "mark": 6532,
      "ÃĹ": 6533,
      "\"/": 6534,
      "ĠDem": 6535,
      "ĠRem": 6536,
      "sub": 6537,
      "SD": 6538,
      "Ġstarting": 6539,
      "Ġsupply": 6540,
      "Ġserved": 6541,
      "Ġrare": 6542,
      "Ġnovel": 6543,
      "ĉĊ": 6544,
      "ï¼ĮåĽłæŃ¤": 6545,
      "ç§ģ": 6546,
      "iot": 6547,
      "ESS": 6548,
      "sum": 6549,
      "é¡ŀ": 6550,
      "Ġcommunities": 6551,
      "ĠGreat": 6552,
      "-B": 6553,
      "å¾Ħ": 6554,
      "ORT": 6555,
      "ĠIsrael": 6556,
      "}{\\": 6557,
      "upport": 6558,
      "Ġyourself": 6559,
      "Manager": 6560,
      "åħ±åĴĮ": 6561,
      "ç´Ģ": 6562,
      "çĥĪ": 6563,
      "çŁ¥éģĵ": 6564,
      "Ġpicture": 6565,
      "Code": 6566,
      "(const": 6567,
      ",èĢĮ": 6568,
      "é¡º": 6569,
      "Ġworkers": 6570,
      "ĠĠĠĠĠĠĠĠĠĠĠĠĠĠĠĠĠ": 6571,
      ")$": 6572,
      "Ġreceive": 6573,
      "çį²": 6574,
      "åĪ¥": 6575,
      "Ġtransform": 6576,
      "ï¼īĊĊ": 6577,
      "Ġtesting": 6578,
      "AX": 6579,
      "ptions": 6580,
      "ĠChristian": 6581,
      "åģ¿": 6582,
      "vant": 6583,
      "ĠAustralia": 6584,
      "ï¼Įå®ĥ": 6585,
      "åĩıå°ĳ": 6586,
      "oted": 6587,
      "package": 6588,
      "Ġspeak": 6589,
      "dt": 6590,
      "Ġfrequency": 6591,
      "ĠFrance": 6592,
      "yles": 6593,
      "ä¹İ": 6594,
      "æĹ¢": 6595,
      "ä¸¥éĩį": 6596,
      "Ġoverall": 6597,
      "ç¡®å®ļ": 6598,
      "Ġdefinition": 6599,
      "ĠBook": 6600,
      "Ġdifferences": 6601,
      "std": 6602,
      "_E": 6603,
      "ĠCD": 6604,
      "ctors": 6605,
      "çĶ¢": 6606,
      "Ġconnection": 6607,
      "Ġplaced": 6608,
      "TP": 6609,
      "Service": 6610,
      "Ġitems": 6611,
      "ste": 6612,
      "Ġenter": 6613,
      "ĠGermany": 6614,
      "orial": 6615,
      "Ġolder": 6616,
      "rl": 6617,
      "rical": 6618,
      "Ġboard": 6619,
      "Ġboolean": 6620,
      "ï¼ĮâĢľ": 6621,
      "ĠWashington": 6622,
      "è¡¡": 6623,
      "ialog": 6624,
      "acters": 6625,
      "Ġfoods": 6626,
      "uries": 6627,
      "othes": 6628,
      "flow": 6629,
      "Ġmental": 6630,
      "æ¯ķ": 6631,
      "å®ŀéªĮ": 6632,
      "olar": 6633,
      "odies": 6634,
      "ny": 6635,
      "å®ģ": 6636,
      "äººä»¬": 6637,
      "och": 6638,
      "Ġinternal": 6639,
      "Ġapply": 6640,
      "å¹´ä»£": 6641,
      "Ġoperation": 6642,
      "idden": 6643,
      "FA": 6644,
      "Ġsaying": 6645,
      "Ġsites": 6646,
      "Ġsin": 6647,
      "otes": 6648,
      "æĹłæ³ķ": 6649,
      "igen": 6650,
      "æ²»çĸĹ": 6651,
      "-up": 6652,
      "æľīçļĦ": 6653,
      "ĠMal": 6654,
      "oz": 6655,
      "Ġbottom": 6656,
      "èĻķ": 6657,
      "ç¶²": 6658,
      "allenge": 6659,
      "Ġtrees": 6660,
      "Ġsem": 6661,
      "ĠMex": 6662,
      "æ¡¥": 6663,
      "Ġdevices": 6664,
      "Ġlabel": 6665,
      "çĵ¦": 6666,
      "hens": 6667,
      "URL": 6668,
      "Ġcreating": 6669,
      "Ġhumans": 6670,
      "road": 6671,
      "è³ĩæĸĻ": 6672,
      "req": 6673,
      "Ġ^": 6674,
      "èµĦäº§": 6675,
      "block": 6676,
      "born": 6677,
      "Ġfederal": 6678,
      "Ġsurround": 6679,
      "Dis": 6680,
      "ç¬¦åĲĪ": 6681,
      "ARR": 6682,
      "array": 6683,
      "Ġgard": 6684,
      "ĠFree": 6685,
      "ĠRoman": 6686,
      "ä¿Ħ": 6687,
      "è½®": 6688,
      "Ġmachine": 6689,
      "éĻįä½İ": 6690,
      "Ġmaximum": 6691,
      "Ġvacc": 6692,
      "çīĻ": 6693,
      "Ut": 6694,
      "sm": 6695,
      "omas": 6696,
      "ï¼Įåį³": 6697,
      "ameter": 6698,
      "è®¸å¤ļ": 6699,
      "Ġsave": 6700,
      "Ġserver": 6701,
      "Ġ\\$": 6702,
      "iar": 6703,
      "ĠDiv": 6704,
      "Ġchurch": 6705,
      "Ġadvant": 6706,
      "AY": 6707,
      "çĽĺ": 6708,
      "âĢĻve": 6709,
      "èĪī": 6710,
      "ename": 6711,
      "ĠUp": 6712,
      "éĢļå¸¸": 6713,
      ")=": 6714,
      "åĪ¸": 6715,
      "related": 6716,
      "aign": 6717,
      "Ġlat": 6718,
      "ä»ĸçļĦ": 6719,
      "Ġinstr": 6720,
      "ado": 6721,
      "acing": 6722,
      "æľºåħ³": 6723,
      "idents": 6724,
      "æľ«": 6725,
      "æ¤įçī©": 6726,
      "ä»»åĬ¡": 6727,
      "éĺħ": 6728,
      "ĠANY": 6729,
      "Ġdoctor": 6730,
      "Ġhous": 6731,
      "Ġvisual": 6732,
      "Ġacqu": 6733,
      "Ġexercise": 6734,
      "æ£ĢæŁ¥": 6735,
      "æīįèĥ½": 6736,
      "è¯¾ç¨ĭ": 6737,
      "Post": 6738,
      "/p": 6739,
      "ologies": 6740,
      "ï¼Įè¿ĺ": 6741,
      "da": 6742,
      "Ġ-->Ċ": 6743,
      "ç¬Ķ": 6744,
      "å®ĭ": 6745,
      "Ġoffice": 6746,
      "riev": 6747,
      "ias": 6748,
      "Ġcool": 6749,
      "Ġsuccessful": 6750,
      "ĠCL": 6751,
      "ipment": 6752,
      "éĺ»": 6753,
      "Ġsustain": 6754,
      "å¼µ": 6755,
      "anged": 6756,
      "Ġapplications": 6757,
      "oses": 6758,
      "Ġcontract": 6759,
      "ĠChinese": 6760,
      "å®Įåħ¨": 6761,
      "æĹ¶æľŁ": 6762,
      "ĠĠĠĠĠĠĠĠĠĠĠĠĠĠĠĠĠĠĠĠĠĠĠĠĠĠĠĠĠĠĠĠĠĠĠĠĠĠĠĠĠĠĠĠĠĠĠĠĠĠĠĠĠĠĠĠĠĠĠĠĠĠĠĠ": 6763,
      "åĪĺ": 6764,
      "ITY": 6765,
      "Ġinform": 6766,
      "cm": 6767,
      "ĠEX": 6768,
      "context": 6769,
      "ĠDavid": 6770,
      "åĪĳ": 6771,
      "iny": 6772,
      "CS": 6773,
      "Ġpull": 6774,
      "vest": 6775,
      "agement": 6776,
      "åħħåĪĨ": 6777,
      "Ġreasons": 6778,
      "Ġvector": 6779,
      "ĉfor": 6780,
      "Ġbey": 6781,
      "enty": 6782,
      "anish": 6783,
      "Ġbeaut": 6784,
      "åĲĥ": 6785,
      "Ġswe": 6786,
      "ç¨ĭåº¦": 6787,
      "åĿļæĮģ": 6788,
      "å¸®åĬ©": 6789,
      "ä¸Ńåľĭ": 6790,
      "Ġstrateg": 6791,
      "ponse": 6792,
      "Ġnav": 6793,
      "gebra": 6794,
      "Ġconstit": 6795,
      "IB": 6796,
      "ãĢĤèĢĮ": 6797,
      ".T": 6798,
      "è´¸": 6799,
      "å²Ľ": 6800,
      "è®¢": 6801,
      "éĽĦ": 6802,
      "levision": 6803,
      "Ġbeyond": 6804,
      "db": 6805,
      "Ġabsol": 6806,
      "Ġfields": 6807,
      "Ġobserved": 6808,
      "Ġcatch": 6809,
      "åĽ½åĨħ": 6810,
      "Ġturned": 6811,
      "æĺł": 6812,
      "Ġsummer": 6813,
      "Ġcourt": 6814,
      "ĠCommun": 6815,
      "ä¸Ģæ¬¡": 6816,
      "obile": 6817,
      "ĠAssociation": 6818,
      "which": 6819,
      "Ġice": 6820,
      "Ġstraight": 6821,
      "clusion": 6822,
      "raz": 6823,
      "è£½": 6824,
      "isf": 6825,
      "Go": 6826,
      "Ġratio": 6827,
      "Ġclient": 6828,
      "Ġitem": 6829,
      "ðĿĳ": 6830,
      "irgin": 6831,
      "åĮĸçļĦ": 6832,
      "æİ¥åıĹ": 6833,
      "ĠSum": 6834,
      "Ġtypically": 6835,
      "ĠÏ": 6836,
      "Ġburn": 6837,
      "Ġmeasures": 6838,
      "ĠEqu": 6839,
      "ĠThus": 6840,
      "åĵ¥": 6841,
      "ĠBr": 6842,
      "andle": 6843,
      "Ġexpand": 6844,
      "web": 6845,
      "ingu": 6846,
      "...ĊĊ": 6847,
      "Ġrelative": 6848,
      "Ġtim": 6849,
      "orders": 6850,
      "Ġresponsible": 6851,
      "osite": 6852,
      "Ġpow": 6853,
      "ĠMor": 6854,
      "ĠMod": 6855,
      "éľ²": 6856,
      "Let": 6857,
      "Ġgold": 6858,
      "é¹": 6859,
      "ĠUnion": 6860,
      "User": 6861,
      "},": 6862,
      "Ġreduced": 6863,
      "å®ľ": 6864,
      "ĠAmericans": 6865,
      "Ġseg": 6866,
      "æŃ£å¼ı": 6867,
      "_size": 6868,
      "abs": 6869,
      "æľŁéĹ´": 6870,
      "Ġreligious": 6871,
      "Line": 6872,
      "åıĳå±ķçļĦ": 6873,
      "Ġappears": 6874,
      "Ġegg": 6875,
      "AME": 6876,
      "OW": 6877,
      "ĠJes": 6878,
      "Ġveget": 6879,
      "Ġprojects": 6880,
      "rogen": 6881,
      "Ġpretty": 6882,
      "Ġtour": 6883,
      "Ġsolutions": 6884,
      "Ġpiece": 6885,
      "Ġprobability": 6886,
      "Ġtum": 6887,
      "Ġsch": 6888,
      "ria": 6889,
      "Ġpoll": 6890,
      "PC": 6891,
      "Ġrecommend": 6892,
      "lient": 6893,
      "éĩıçļĦ": 6894,
      "å®¹æĺĵ": 6895,
      "Ġrepl": 6896,
      "contain": 6897,
      "âĢĺ": 6898,
      "ĠRef": 6899,
      "å°¤": 6900,
      "Ġcast": 6901,
      "Ġlen": 6902,
      "ï¼Įå°Ĩ": 6903,
      "uthors": 6904,
      "Ġequival": 6905,
      "rd": 6906,
      "Ġtherapy": 6907,
      "ensions": 6908,
      "rices": 6909,
      "TE": 6910,
      "ĠWhy": 6911,
      "Ġcam": 6912,
      "ida": 6913,
      "ä¿Ŀè¯ģ": 6914,
      ")^": 6915,
      "Ġtoward": 6916,
      "ears": 6917,
      "Ġqual": 6918,
      ".F": 6919,
      "Ġutil": 6920,
      "Ġclinical": 6921,
      "cohol": 6922,
      "ĠUK": 6923,
      "Ġhour": 6924,
      "Point": 6925,
      "ĠMark": 6926,
      "Ġdiseases": 6927,
      "Color": 6928,
      "æĻļ": 6929,
      "å°Ī": 6930,
      "Ġreplace": 6931,
      "sg": 6932,
      "Ġsend": 6933,
      "å±ŀäºİ": 6934,
      "My": 6935,
      "å§Ķåĳĺä¼ļ": 6936,
      "æŃ·": 6937,
      "Ġuint": 6938,
      "Ġarriv": 6939,
      "å³°": 6940,
      "è®¨": 6941,
      "éª¨": 6942,
      "position": 6943,
      "Ġhappen": 6944,
      "merican": 6945,
      "Ġnotice": 6946,
      "ï¼Įåı¯": 6947,
      "ĠWeb": 6948,
      "Ġfig": 6949,
      "Ġbank": 6950,
      "ç»©": 6951,
      "æ´¥": 6952,
      "Ġrob": 6953,
      "ometry": 6954,
      "ĠBecause": 6955,
      "æĵĬ": 6956,
      "Ġdestroy": 6957,
      "Ġleaves": 6958,
      ".x": 6959,
      "æĪĺçķ¥": 6960,
      "çİī": 6961,
      "åıĬæĹ¶": 6962,
      "éĬ": 6963,
      "çĽ®çļĦ": 6964,
      "Ġ\\Ċ": 6965,
      "è°Ī": 6966,
      "Ġpen": 6967,
      "mission": 6968,
      "è¯Ńè¨Ģ": 6969,
      "emplate": 6970,
      "ĠDuring": 6971,
      "REF": 6972,
      "plications": 6973,
      "Ġcold": 6974,
      "Ġfailed": 6975,
      "force": 6976,
      "ĠArch": 6977,
      "ĠâĪĴ": 6978,
      "Ġsurg": 6979,
      "ĠSen": 6980,
      "Ġcomponents": 6981,
      "æ±ĩ": 6982,
      "(int": 6983,
      "Ġcalculate": 6984,
      "Ġequations": 6985,
      "Ġsetting": 6986,
      "Ġcitiz": 6987,
      "ãĢĳ": 6988,
      "ä¾§": 6989,
      "Ġtrade": 6990,
      "ï¼ĮæĪĳ": 6991,
      "ĠAccording": 6992,
      "Ġoccurs": 6993,
      "çĸĳ": 6994,
      "ĠPal": 6995,
      "æĿ¥è¯´": 6996,
      "ĠMr": 6997,
      "ç°": 6998,
      "é¼ĵ": 6999,
      "path": 7000,
      "Ġprotection": 7001,
      "ãĢĲ": 7002,
      "Ġpoly": 7003,
      "åł±": 7004,
      "ERT": 7005,
      "è°ĥæķ´": 7006,
      "çĩĥ": 7007,
      "Ġefforts": 7008,
      "Ġsurpr": 7009,
      "Ġchance": 7010,
      "Ġadapt": 7011,
      "rant": 7012,
      "ç¨³å®ļ": 7013,
      "ĠOut": 7014,
      "åĳ¢": 7015,
      "-pro": 7016,
      "ĠDE": 7017,
      "open": 7018,
      "Ġexisting": 7019,
      "ç»§ç»Ń": 7020,
      "Ġmajority": 7021,
      "elebr": 7022,
      "Ġer": 7023,
      "ĠDon": 7024,
      "can": 7025,
      "ference": 7026,
      "æļ´": 7027,
      "Ġteacher": 7028,
      "æ±½è½¦": 7029,
      "iring": 7030,
      "é»ŀ": 7031,
      "Ġcounter": 7032,
      "æıı": 7033,
      "ĠâĢ¦": 7034,
      "æĮ¯": 7035,
      "ç»į": 7036,
      "ypes": 7037,
      "çĲĨè§£": 7038,
      "Ġcharacters": 7039,
      "Ġmess": 7040,
      "ithub": 7041,
      "Ġcircle": 7042,
      "ying": 7043,
      "Ġnorm": 7044,
      "ĠHel": 7045,
      "æĺ¾ç¤º": 7046,
      "cher": 7047,
      "valid": 7048,
      "Ġeffort": 7049,
      "åĨĮ": 7050,
      "Ġsyn": 7051,
      "Ġtrig": 7052,
      "Ġteaching": 7053,
      "Ġcolon": 7054,
      "ressed": 7055,
      "æĦıä¹ī": 7056,
      "Ġvote": 7057,
      "otype": 7058,
      "Ġprotected": 7059,
      "çĨŁ": 7060,
      "ç·¨": 7061,
      "\\\\": 7062,
      "è®¿": 7063,
      "Ġsignificantly": 7064,
      "Ġseek": 7065,
      "ously": 7066,
      "ĠSoftware": 7067,
      "Ġgiving": 7068,
      "âĪĴ": 7069,
      "æĮĩå¯¼": 7070,
      "Ġancient": 7071,
      "ç¬¬åĽĽ": 7072,
      "mt": 7073,
      "stitution": 7074,
      "äººç±»": 7075,
      "æľªæĿ¥": 7076,
      "ĠProgram": 7077,
      ".B": 7078,
      "Sp": 7079,
      "ä¸Ģèµ·": 7080,
      "ç¼©": 7081,
      "allel": 7082,
      "pected": 7083,
      "åıĳå¸ĥ": 7084,
      "ç¦ģ": 7085,
      "Ġexperim": 7086,
      "ä¾µ": 7087,
      "Ġidentified": 7088,
      "è¯¢": 7089,
      ".;": 7090,
      "iately": 7091,
      "ĠCO": 7092,
      "Ġprime": 7093,
      "åı°çģ£": 7094,
      "æ¢ģ": 7095,
      "ĠChallenge": 7096,
      "Ġcharge": 7097,
      "æħ¢": 7098,
      "Ð¸": 7099,
      "Ġorganization": 7100,
      "Ġseparate": 7101,
      "cel": 7102,
      "èĩªçĶ±": 7103,
      "Some": 7104,
      "Ġplease": 7105,
      "Ġprocesses": 7106,
      "-se": 7107,
      "åİŁåĪĻ": 7108,
      "ya": 7109,
      "ramework": 7110,
      "Mod": 7111,
      "Ġfavor": 7112,
      "ĠJames": 7113,
      "Ġincor": 7114,
      "æĩī": 7115,
      "Ġsignal": 7116,
      "pecial": 7117,
      "èĻ½çĦ¶": 7118,
      "nes": 7119,
      "ĠEach": 7120,
      "çĽĳçĿ£": 7121,
      "aud": 7122,
      "Ġï¼Ī": 7123,
      "æĤ¨": 7124,
      "Ġcru": 7125,
      "urance": 7126,
      "Ġseven": 7127,
      "Ġfemale": 7128,
      "çļĦåıĳå±ķ": 7129,
      "Ġplatform": 7130,
      "default": 7131,
      "Ġcook": 7132,
      "ĠPM": 7133,
      "Can": 7134,
      "ĠProf": 7135,
      "Image": 7136,
      "Ġconv": 7137,
      "ĠSociety": 7138,
      "-term": 7139,
      "æ¯Ķå¦Ĥ": 7140,
      "Ġeasier": 7141,
      "Ġentry": 7142,
      "-r": 7143,
      "uster": 7144,
      "')Ċ": 7145,
      "Ġinstall": 7146,
      "loat": 7147,
      "iat": 7148,
      "Ġargument": 7149,
      "Ġresistance": 7150,
      "uint": 7151,
      "Ġbeg": 7152,
      "ç±į": 7153,
      "Ġoccup": 7154,
      "çļĦçī¹": 7155,
      "æķĪæŀľ": 7156,
      "aughter": 7157,
      "Ġpresence": 7158,
      "é£¾": 7159,
      "oday": 7160,
      "(i": 7161,
      "Ã¼": 7162,
      "amily": 7163,
      "ĠSur": 7164,
      "Ġplaying": 7165,
      "arian": 7166,
      "UG": 7167,
      "åıĳæĮ¥": 7168,
      "è·¨": 7169,
      "Ġalgor": 7170,
      "Ġimportance": 7171,
      "ĠRE": 7172,
      "ç¡¬": 7173,
      "ellig": 7174,
      "ç¬¬åįģ": 7175,
      "åĬª": 7176,
      "Ġeconomy": 7177,
      "Ġeventually": 7178,
      "è¶£": 7179,
      "åŁ¹è®Ń": 7180,
      "DR": 7181,
      "Ġtechniques": 7182,
      "ĠMedic": 7183,
      "å¼¹": 7184,
      "ander": 7185,
      "æĦıè¯Ĩ": 7186,
      "ĠKe": 7187,
      "ä¸ĸçºª": 7188,
      "olve": 7189,
      "stances": 7190,
      "Ġfinding": 7191,
      "<td": 7192,
      "usb": 7193,
      "rier": 7194,
      "æ¸Ĳ": 7195,
      "FIG": 7196,
      "ĠOur": 7197,
      "ĠGNU": 7198,
      "Ġroll": 7199,
      "Ġcry": 7200,
      "Ġinterpret": 7201,
      "ç¶Ń": 7202,
      "Ġremoved": 7203,
      "Ġhabit": 7204,
      ">(": 7205,
      "Ġswitch": 7206,
      "Ġlooks": 7207,
      "Ġbillion": 7208,
      "çļĦéĹ®é¢ĺ": 7209,
      "ĠPort": 7210,
      ":\"": 7211,
      "improve": 7212,
      "Ġfollows": 7213,
      "Source": 7214,
      "_ID": 7215,
      "å½©": 7216,
      "æĥł": 7217,
      "Ġdegrees": 7218,
      "ç»Ĩèĥŀ": 7219,
      "ounced": 7220,
      "åºŁ": 7221,
      "oul": 7222,
      "ĠRel": 7223,
      "Ġreflect": 7224,
      "äººçī©": 7225,
      "Ġsubt": 7226,
      "Ġrace": 7227,
      "End": 7228,
      "ĠTwo": 7229,
      "Ġslight": 7230,
      "Ġstaff": 7231,
      "Ġperhaps": 7232,
      "Ġassist": 7233,
      "è´µ": 7234,
      "Ġconnected": 7235,
      "Ġult": 7236,
      "ĠSam": 7237,
      "ago": 7238,
      "æľĢé«ĺ": 7239,
      "Ġspring": 7240,
      "æ³Ľ": 7241,
      "å±Ĭ": 7242,
      "izer": 7243,
      "content": 7244,
      "åħ³æ³¨": 7245,
      "ALL": 7246,
      "åıĤåĬł": 7247,
      "pective": 7248,
      "Ġcoast": 7249,
      "_pro": 7250,
      "Ġcos": 7251,
      "Ġclosed": 7252,
      "åĲĪçĲĨ": 7253,
      "reedom": 7254,
      "å¼±": 7255,
      "Ġesc": 7256,
      "Ġunsigned": 7257,
      "ï¼ĮæīĢä»¥": 7258,
      "ĠBer": 7259,
      "Ġwaste": 7260,
      "Ġconflict": 7261,
      "ä¼ļè®®": 7262,
      "Ġ(*": 7263,
      "æĽ´åĬł": 7264,
      "Ġconsequ": 7265,
      "Ġdiag": 7266,
      "Ġdu": 7267,
      "éĩįå¤§": 7268,
      "à¯": 7269,
      "ä¸įä¼ļ": 7270,
      "éģĭåĭķ": 7271,
      "è®Ĭ": 7272,
      "Ġinfection": 7273,
      "å¤ľ": 7274,
      "Ġspirit": 7275,
      "Ġtriangle": 7276,
      "Ġenh": 7277,
      "Ġmonitor": 7278,
      "Rep": 7279,
      "Ġfinally": 7280,
      "DF": 7281,
      "Ġpregn": 7282,
      "ĠOver": 7283,
      "åĩºçīĪ": 7284,
      "icate": 7285,
      "ĠObject": 7286,
      "Ġselected": 7287,
      "åįĸ": 7288,
      "Ġrapid": 7289,
      "Ġincreases": 7290,
      "za": 7291,
      "%ï¼Į": 7292,
      "Ġsets": 7293,
      "ĠDevelop": 7294,
      "Ġarchitect": 7295,
      "è¦ĭ": 7296,
      "arts": 7297,
      "Ġalign": 7298,
      "æ²¿": 7299,
      "ĠJournal": 7300,
      "Ġcomponent": 7301,
      "ä½įç½®": 7302,
      "Ġfully": 7303,
      "Ġbehavi": 7304,
      "Ġfuel": 7305,
      "Ġking": 7306,
      "å¸ĮæľĽ": 7307,
      "tee": 7308,
      "åķĨä¸ļ": 7309,
      "header": 7310,
      "These": 7311,
      "æ¢Ŀ": 7312,
      "begin": 7313,
      "Ġhighest": 7314,
      "pc": 7315,
      "èĪŀ": 7316,
      "åŃĶ": 7317,
      "indows": 7318,
      "ãĢĤæŃ¤": 7319,
      "BS": 7320,
      "mitted": 7321,
      "éĲµ": 7322,
      "è°ĥæŁ¥": 7323,
      "åĪĨåĪ«": 7324,
      "Ġtried": 7325,
      "ĠInst": 7326,
      "Ġphil": 7327,
      "First": 7328,
      "ĠSl": 7329,
      "Ġclasses": 7330,
      "æ³°": 7331,
      "æģ©": 7332,
      "Ġcoordin": 7333,
      "é±": 7334,
      "èĢģå¸Ī": 7335,
      "Ġhandle": 7336,
      "è§¦": 7337,
      "å¤§åŃ¸": 7338,
      "Ġjournal": 7339,
      "rams": 7340,
      "ĠCouncil": 7341,
      "Ġbenefit": 7342,
      "Ġadults": 7343,
      "Ġdrive": 7344,
      "æ¾³": 7345,
      "Pe": 7346,
      "éłŃ": 7347,
      "Ġmotion": 7348,
      "ocity": 7349,
      "_to": 7350,
      "Ġsolar": 7351,
      "mosp": 7352,
      "å±ħæ°ĳ": 7353,
      "|improve": 7354,
      "åĿĢ": 7355,
      "_i": 7356,
      "Ġheard": 7357,
      "çĽĳç®¡": 7358,
      "Gener": 7359,
      "ĠGreen": 7360,
      "Group": 7361,
      "roph": 7362,
      "èĥľ": 7363,
      "estic": 7364,
      "ĠNone": 7365,
      "æĺ¯ä¸Ģä¸ª": 7366,
      "ĠRober": 7367,
      "å»ºè®®": 7368,
      "Ġcultural": 7369,
      "Ġtru": 7370,
      "imin": 7371,
      "Ġjoint": 7372,
      "ĠLear": 7373,
      "Ġstim": 7374,
      "å²¸": 7375,
      "çĹĽ": 7376,
      "ipe": 7377,
      "åĭĴ": 7378,
      "asion": 7379,
      "èĢĥèĻĳ": 7380,
      "æ±¡æŁĵ": 7381,
      "Ġcapacity": 7382,
      "anation": 7383,
      ".assert": 7384,
      "è¡ĵ": 7385,
      "Ġactions": 7386,
      "oration": 7387,
      "Ġproviding": 7388,
      "args": 7389,
      "Ġillust": 7390,
      "asure": 7391,
      "-D": 7392,
      "(-": 7393,
      ".ex": 7394,
      "ĠOb": 7395,
      "éĹ»": 7396,
      "Here": 7397,
      "hi": 7398,
      "ython": 7399,
      "åĩºçļĦ": 7400,
      "/b": 7401,
      "ĠEv": 7402,
      "Ġlooked": 7403,
      "Ġsupported": 7404,
      "ĠPaul": 7405,
      "è®¾ç½®": 7406,
      "IZE": 7407,
      "=\"../": 7408,
      "entry": 7409,
      "åĳ¼": 7410,
      "ç»Łä¸Ģ": 7411,
      "oyal": 7412,
      "Ġsitu": 7413,
      "?\"": 7414,
      "While": 7415,
      "Ġbrother": 7416,
      "Ġrelatively": 7417,
      "Ġopportunity": 7418,
      "Ġrect": 7419,
      "ĠMac": 7420,
      "éĻ¤äºĨ": 7421,
      "Ġradio": 7422,
      "Last": 7423,
      "des": 7424,
      "Ġtreated": 7425,
      "Ġkil": 7426,
      "èĻļ": 7427,
      "åħ¼": 7428,
      "Ġwat": 7429,
      "ĠCourt": 7430,
      "Ġdigital": 7431,
      "Ġcharg": 7432,
      "ĠRich": 7433,
      "Ġimmediately": 7434,
      "itz": 7435,
      "stract": 7436,
      "orem": 7437,
      "abilities": 7438,
      "ä¸»ä½ĵ": 7439,
      "çĬ¶æĢģ": 7440,
      "Ġequipment": 7441,
      "(new": 7442,
      "Ġpatterns": 7443,
      "ĠBas": 7444,
      "æ£Ģæµĭ": 7445,
      "å¤§å®¶": 7446,
      "à¥": 7447,
      "omic": 7448,
      "ç¼ĵ": 7449,
      "ç«ŀäºī": 7450,
      "Ġnone": 7451,
      "ä¼ĳ": 7452,
      "Ġaffected": 7453,
      "iling": 7454,
      "width": 7455,
      "icians": 7456,
      "Ġfailure": 7457,
      "ĠAM": 7458,
      "Ġapproximately": 7459,
      "ĠUN": 7460,
      "Ġletter": 7461,
      "eger": 7462,
      "Ġhappens": 7463,
      "è¯Ħä»·": 7464,
      "adding": 7465,
      "ä¸įåĲĮçļĦ": 7466,
      "Ġcompleted": 7467,
      "ĠDet": 7468,
      "ĠReturn": 7469,
      "color": 7470,
      "host": 7471,
      "é¾į": 7472,
      "ï¼Įè¦ģ": 7473,
      "æĬµ": 7474,
      "oding": 7475,
      "ä¸ĩåħĥ": 7476,
      "-re": 7477,
      "Ġut": 7478,
      "ĠTherefore": 7479,
      "RI": 7480,
      "Buffer": 7481,
      "Ġrise": 7482,
      "Ġguid": 7483,
      "èªį": 7484,
      "Ġdetermined": 7485,
      "_EN": 7486,
      "å®½": 7487,
      "wood": 7488,
      "Ġspect": 7489,
      "They": 7490,
      "Ġ});Ċ": 7491,
      "Ġ\\\\": 7492,
      "ç»ĦæĪĲ": 7493,
      "omial": 7494,
      "aven": 7495,
      "Ġvirtual": 7496,
      "Ġdecided": 7497,
      "race": 7498,
      "Ġdivided": 7499,
      "Ab": 7500,
      "äº¿åħĥ": 7501,
      "asks": 7502,
      "berg": 7503,
      "åĲĽ": 7504,
      "å¼ĢæĶ¾": 7505,
      "ows": 7506,
      "ician": 7507,
      "lamm": 7508,
      "Ġdoub": 7509,
      "ĉb": 7510,
      "çĽĽ": 7511,
      "inding": 7512,
      "ĠBi": 7513,
      "ĠCap": 7514,
      "æ²»çĲĨ": 7515,
      "Ġframe": 7516,
      "~~": 7517,
      "Ġexecut": 7518,
      "adian": 7519,
      "Ġmig": 7520,
      "ampions": 7521,
      "Ġrestrict": 7522,
      "DP": 7523,
      "ä½įäºİ": 7524,
      "ĠJe": 7525,
      ")/": 7526,
      "Ġpp": 7527,
      "å¾ª": 7528,
      "Ġwife": 7529,
      "Ġpages": 7530,
      "Ġdrugs": 7531,
      "Ġcelebr": 7532,
      "FT": 7533,
      "Ġarm": 7534,
      "Ġcollege": 7535,
      "Ġobvious": 7536,
      "çĪĨ": 7537,
      "Nav": 7538,
      "Status": 7539,
      "CM": 7540,
      "ĠMiss": 7541,
      "Ġpresented": 7542,
      "_un": 7543,
      "ĠMary": 7544,
      "Ġtopic": 7545,
      "App": 7546,
      "ç»ıéªĮ": 7547,
      "Ġdiscovered": 7548,
      "ĉg": 7549,
      "rum": 7550,
      "arter": 7551,
      "anges": 7552,
      "Ġdoc": 7553,
      "ä¸įåı¯": 7554,
      "bf": 7555,
      "ä¹ĭåīį": 7556,
      "img": 7557,
      "ĠTex": 7558,
      "éķ¿æľŁ": 7559,
      "Ġcommunication": 7560,
      "ĠGeorge": 7561,
      "Ġ(\"": 7562,
      "Ġtissue": 7563,
      "ĠWilliam": 7564,
      "Ġdiabetes": 7565,
      "Ġsimpl": 7566,
      "è£ģ": 7567,
      "ql": 7568,
      "åıĤèĢĥæĸĩçĮ®": 7569,
      "æĪĲçĤº": 7570,
      "ĠOff": 7571,
      "Ġkilled": 7572,
      "ifying": 7573,
      "Ġpet": 7574,
      "Ġcommonly": 7575,
      "QL": 7576,
      "Ġagricult": 7577,
      ")\\": 7578,
      "Ġfelt": 7579,
      "éĴĪå¯¹": 7580,
      "itis": 7581,
      "ĠHT": 7582,
      "åģı": 7583,
      "that": 7584,
      "çĳŀ": 7585,
      "Ġstories": 7586,
      "ĠProject": 7587,
      "ç¾¤ä¼Ĺ": 7588,
      "çĦ¶åĲİ": 7589,
      "çļĦä¸Ģä¸ª": 7590,
      "Ġbuffer": 7591,
      "Ġnative": 7592,
      "Ġcombination": 7593,
      "éģ¿åħį": 7594,
      "ĠWestern": 7595,
      "++)": 7596,
      "äºĴèģĶç½ĳ": 7597,
      "Part": 7598,
      "house": 7599,
      "èĲ¬": 7600,
      "çĶŁåĳ½": 7601,
      "çĸ«æĥħ": 7602,
      "ĠDNA": 7603,
      "Ġgene": 7604,
      "Ġforeign": 7605,
      "Ġpreviously": 7606,
      "Head": 7607,
      "apers": 7608,
      "ç´¯": 7609,
      "æĭ¥": 7610,
      "iled": 7611,
      "çļĦæĸ°": 7612,
      "ç¾İåħĥ": 7613,
      "Ġpowerful": 7614,
      "ĠCongress": 7615,
      "çļĦæĹ¶åĢĻ": 7616,
      "Input": 7617,
      "Per": 7618,
      "Ġsecret": 7619,
      "antic": 7620,
      "Ġupdate": 7621,
      "éĿ©åĳ½": 7622,
      "Ġfill": 7623,
      "Ġminor": 7624,
      "æĦıè§ģ": 7625,
      "ä¾Ŀæ³ķ": 7626,
      "è¬": 7627,
      "Ġweather": 7628,
      "Ġlibrary": 7629,
      "ĉĉĉĉĉĉ": 7630,
      "æĺİæĺ¾": 7631,
      "Ġexperien": 7632,
      "-C": 7633,
      "Ġupd": 7634,
      "iples": 7635,
      "èĢĥè¯ķ": 7636,
      "æĽ¼": 7637,
      "ayout": 7638,
      "phas": 7639,
      "Ġinterface": 7640,
      "semb": 7641,
      "ULT": 7642,
      "Ġplans": 7643,
      "arsh": 7644,
      "ĠBel": 7645,
      "éģĬ": 7646,
      "Ġefficient": 7647,
      "Ġdescribe": 7648,
      "ï¼İ": 7649,
      "ãĢĭĊ": 7650,
      "}-": 7651,
      "ãĢĭï¼Ī": 7652,
      "ĠGen": 7653,
      "}^{": 7654,
      "éĽ¨": 7655,
      "Ġstrugg": 7656,
      "oin": 7657,
      "ping": 7658,
      "ĠAD": 7659,
      "\"/>Ċ": 7660,
      "ifically": 7661,
      "gt": 7662,
      "Ġeffic": 7663,
      "<!--": 7664,
      "ç®Ģåįķ": 7665,
      "Ġotherwise": 7666,
      "Ġthrows": 7667,
      "ï¼Įåħ¶ä¸Ń": 7668,
      "æĭŁ": 7669,
      "çī¹èī²": 7670,
      "iful": 7671,
      "è´¦": 7672,
      "arser": 7673,
      "isation": 7674,
      "Ġhistorical": 7675,
      "é¡¾": 7676,
      "ç©¿": 7677,
      "Ġnor": 7678,
      "irginia": 7679,
      "Ġstandards": 7680,
      "ĉĠĠĠ": 7681,
      "Ġpeace": 7682,
      "ĠAND": 7683,
      "Ġhear": 7684,
      "ç»ıè¿ĩ": 7685,
      "Model": 7686,
      "amm": 7687,
      "éĶĢåĶ®": 7688,
      "umer": 7689,
      "porary": 7690,
      "èģĶåĲĪ": 7691,
      "Ġdrop": 7692,
      "Ġbed": 7693,
      "-century": 7694,
      "é¡¶": 7695,
      "Ġcampaign": 7696,
      "uing": 7697,
      "adr": 7698,
      "resents": 7699,
      "current": 7700,
      "Bl": 7701,
      "obj": 7702,
      "Ġcommercial": 7703,
      "åĪĽéĢł": 7704,
      "Ġadopt": 7705,
      "search": 7706,
      "å°¾": 7707,
      "ĠPeople": 7708,
      "Ġupper": 7709,
      "èıľ": 7710,
      "Ġhuge": 7711,
      "Ġmission": 7712,
      "ARRANT": 7713,
      "rian": 7714,
      "Ġbattle": 7715,
      "å§ĵ": 7716,
      "Ġpolice": 7717,
      "Ġresulting": 7718,
      "nel": 7719,
      "ĠAtt": 7720,
      "èµĦæľ¬": 7721,
      "èıĮ": 7722,
      "ractions": 7723,
      "Ġcore": 7724,
      "éĿ¢ç§¯": 7725,
      "Ġexposure": 7726,
      ".r": 7727,
      "Ġstructures": 7728,
      "å¼Ł": 7729,
      "Ġdie": 7730,
      "ĠWARRANT": 7731,
      "ĠJesus": 7732,
      "Ġdra": 7733,
      "Ġintroduced": 7734,
      "-sh": 7735,
      "ĠMart": 7736,
      "rowser": 7737,
      "è¨ĺ": 7738,
      "ĠWork": 7739,
      "ä»ª": 7740,
      "olved": 7741,
      "ĠService": 7742,
      "ä»ĭç»į": 7743,
      "Ġgun": 7744,
      "ç§ĭ": 7745,
      "Ret": 7746,
      "äº¤æµģ": 7747,
      "Ġstrength": 7748,
      "Ġsav": 7749,
      "ky": 7750,
      "ç»¿èī²": 7751,
      "åĢį": 7752,
      "éļĲ": 7753,
      "éĢ£çµĲ": 7754,
      "çĦ¶èĢĮ": 7755,
      "èľ": 7756,
      "Ġreached": 7757,
      "ĠĠĠĠĠĠĠĠĠĠĠĠĠĠĠĠĠĠĠĠĠĠĠĠĠĠĠĠĠĠĠ": 7758,
      "é¡Į": 7759,
      "Ġopened": 7760,
      "BA": 7761,
      "Ġdro": 7762,
      "éĸĭå§ĭ": 7763,
      "Ġexhib": 7764,
      "ĠUnder": 7765,
      "æ¢°": 7766,
      "nam": 7767,
      "Ġple": 7768,
      "Ġsugar": 7769,
      "Ġacadem": 7770,
      "ebug": 7771,
      "å°±ä¸ļ": 7772,
      "å¹³åĿĩ": 7773,
      "Ġheavy": 7774,
      "ĠType": 7775,
      "åºĬ": 7776,
      "å¥§": 7777,
      "atically": 7778,
      "ä»¥æĿ¥": 7779,
      "enu": 7780,
      "ographic": 7781,
      "çĺ": 7782,
      "Ġfine": 7783,
      "æĶ¹åıĺ": 7784,
      "SET": 7785,
      "çİ©": 7786,
      "ĠSun": 7787,
      "Ġminimum": 7788,
      "elled": 7789,
      "Ġnuclear": 7790,
      "title": 7791,
      "Ġgeneration": 7792,
      "éĩįè¦ģçļĦ": 7793,
      "Response": 7794,
      "ĉbreak": 7795,
      "icks": 7796,
      "ï¼Įå½ĵ": 7797,
      "è¿ª": 7798,
      "km": 7799,
      "è¾ĳ": 7800,
      "Ġteeth": 7801,
      "å¿«éĢŁ": 7802,
      "ĠMet": 7803,
      "æ¬¢": 7804,
      "_list": 7805,
      "Ġphen": 7806,
      "åľĴ": 7807,
      "Ġincome": 7808,
      "MAT": 7809,
      "é£Łåĵģ": 7810,
      "allback": 7811,
      "Ġgenetic": 7812,
      "']": 7813,
      "Ġfindings": 7814,
      "rient": 7815,
      "BN": 7816,
      "ï½": 7817,
      "ĠGroup": 7818,
      "ĠStep": 7819,
      "ĠCam": 7820,
      "æ±º": 7821,
      "çŁ¿": 7822,
      "Ġglass": 7823,
      "Ġdescription": 7824,
      "Ġvel": 7825,
      "åľ£": 7826,
      "Ġmodule": 7827,
      "Ġcovered": 7828,
      "èµ·æĿ¥": 7829,
      "èĲ½å®ŀ": 7830,
      "ĠLine": 7831,
      "Ġcir": 7832,
      "Ġ~": 7833,
      "Ġded": 7834,
      "ï¼Įæ¯ı": 7835,
      "Ã¶": 7836,
      "SC": 7837,
      "arn": 7838,
      "Ġregions": 7839,
      "Query": 7840,
      "!!": 7841,
      "Ġplanet": 7842,
      "Ġspent": 7843,
      "ĠPlan": 7844,
      "alysis": 7845,
      "Factory": 7846,
      "çļĦé«ĺ": 7847,
      "è£Ŀ": 7848,
      "Ġpair": 7849,
      "Ġemail": 7850,
      "cp": 7851,
      "é¬": 7852,
      "å®¢æĪ·": 7853,
      "ä¹ĺ": 7854,
      "éļĽ": 7855,
      "Ġsatisf": 7856,
      "Ġindu": 7857,
      "æħ§": 7858,
      "Ġchanging": 7859,
      "udget": 7860,
      "ĠJer": 7861,
      "Ġwa": 7862,
      "èĢħçļĦ": 7863,
      "Ġobtained": 7864,
      "Ġguide": 7865,
      "ĠQue": 7866,
      "ĠTime": 7867,
      "Ġalcohol": 7868,
      "Start": 7869,
      "Ġtruth": 7870,
      "åĿı": 7871,
      "Ġready": 7872,
      "æĳ©": 7873,
      "request": 7874,
      "Ġhair": 7875,
      "Ġfilms": 7876,
      "Result": 7877,
      "åĪļ": 7878,
      "åĪ¶å®ļ": 7879,
      "Ġclearly": 7880,
      "enth": 7881,
      "orter": 7882,
      "æķħäºĭ": 7883,
      "-th": 7884,
      "ç§ĺ": 7885,
      "åĩĿ": 7886,
      "åĲİçļĦ": 7887,
      "åĳĪ": 7888,
      "ĠLog": 7889,
      "Ġexperiment": 7890,
      "uzz": 7891,
      "Ġclub": 7892,
      "Ġdoor": 7893,
      "height": 7894,
      "inger": 7895,
      "(A": 7896,
      "éĿĻ": 7897,
      "åı«": 7898,
      "osen": 7899,
      "å¹¼åĦ¿": 7900,
      "Ġodd": 7901,
      "Ġhospital": 7902,
      "Ġrecords": 7903,
      "ä¼ĺåĬ¿": 7904,
      "anging": 7905,
      "èĨľ": 7906,
      "Pr": 7907,
      "Ġsamples": 7908,
      "æľ±": 7909,
      "Ġbalance": 7910,
      "anned": 7911,
      "Ġoffers": 7912,
      "é¦ĸåħĪ": 7913,
      "ï¼Įä¸ŃåĽ½": 7914,
      "ĠMathematics": 7915,
      "PP": 7916,
      "bi": 7917,
      "Ġmouth": 7918,
      "ĠBen": 7919,
      "Ġunc": 7920,
      "ka": 7921,
      "oly": 7922,
      "è¯º": 7923,
      "Ġkid": 7924,
      "-F": 7925,
      "ĠWhite": 7926,
      "ĠDel": 7927,
      "fin": 7928,
      "æŃ£å¸¸": 7929,
      "ĠPhys": 7930,
      "Ġlearned": 7931,
      "while": 7932,
      "Ġdiscussion": 7933,
      "Ġnotes": 7934,
      "èĤī": 7935,
      "osoph": 7936,
      "Ġknew": 7937,
      "ao": 7938,
      "Ġeating": 7939,
      "è°·": 7940,
      "roller": 7941,
      "Ġrain": 7942,
      "éī": 7943,
      "å¸¶": 7944,
      "Ġmm": 7945,
      "ĠCath": 7946,
      "æŃ£ç¡®": 7947,
      "ĠTexas": 7948,
      "ĠAL": 7949,
      "å§Ĩ": 7950,
      "Ġreports": 7951,
      "Ġyield": 7952,
      "ç¤¾åĮº": 7953,
      "Ġrich": 7954,
      "Ġopin": 7955,
      "Ġriver": 7956,
      "well": 7957,
      "Ġkm": 7958,
      "Ġfear": 7959,
      "èģ·": 7960,
      "Ġfilter": 7961,
      "éļĨ": 7962,
      "æ®Ĭ": 7963,
      "anted": 7964,
      "ĠJewish": 7965,
      "Ġproport": 7966,
      "ĠTra": 7967,
      "æľīä¸Ģ": 7968,
      "ĠTheir": 7969,
      "çģ¾": 7970,
      "Ġpolic": 7971,
      "attr": 7972,
      "å¼ķèµ·": 7973,
      "CA": 7974,
      "æ¢ħ": 7975,
      "Ġacceler": 7976,
      "query": 7977,
      "ODE": 7978,
      "Ġdram": 7979,
      "idget": 7980,
      "éĢŁåº¦": 7981,
      "Ġbaby": 7982,
      "åį«çĶŁ": 7983,
      "Ġtouch": 7984,
      "æĭĶ": 7985,
      "çĤİ": 7986,
      "Ġcandid": 7987,
      "ERS": 7988,
      "Ġphase": 7989,
      "éĩĩåıĸ": 7990,
      "åħ±åĴĮåĽ½": 7991,
      "connect": 7992,
      "esh": 7993,
      "Ġrul": 7994,
      "Ġdistinct": 7995,
      "Ġcarried": 7996,
      "æĬĺ": 7997,
      "ĠTur": 7998,
      "mathrm": 7999,
      "ĠArmy": 8000,
      "INT": 8001,
      "Ġregarding": 8002,
      "Ġmentioned": 8003,
      ".R": 8004,
      "ç¼´": 8005,
      "Ġfixed": 8006,
      "''": 8007,
      "Ġcontaining": 8008,
      "Ġmist": 8009,
      "();": 8010,
      "Ġrepresents": 8011,
      "atal": 8012,
      "èį·": 8013,
      "anguages": 8014,
      "æĹĹ": 8015,
      "é¢¨": 8016,
      "Ġthread": 8017,
      "Ġtelevision": 8018,
      "è¦Ĩ": 8019,
      "Ġtrain": 8020,
      "ĠLeague": 8021,
      "Ġequivalent": 8022,
      "Ġaw": 8023,
      "ĠJapanese": 8024,
      "Ġplane": 8025,
      "uls": 8026,
      "Ġnoted": 8027,
      "Te": 8028,
      "ç±»åŀĭ": 8029,
      "è´¢æĶ¿": 8030,
      "ä¸¹": 8031,
      "Ġprefer": 8032,
      "Ġcircum": 8033,
      "ĠWater": 8034,
      "Ġserve": 8035,
      "çĶ¨çļĦ": 8036,
      "Ġedge": 8037,
      "æĥħåĨµä¸ĭ": 8038,
      "$,": 8039,
      "Ġcities": 8040,
      "Ġbreast": 8041,
      "åı¦å¤ĸ": 8042,
      "IST": 8043,
      "urity": 8044,
      "æĹ§": 8045,
      "ffff": 8046,
      "Ġwhom": 8047,
      "Ġatmosp": 8048,
      "åı¦ä¸Ģ": 8049,
      "Em": 8050,
      "ç³ĸ": 8051,
      "Ġpractices": 8052,
      "Ġbacteria": 8053,
      "SA": 8054,
      "Ġcycle": 8055,
      "ategy": 8056,
      "ĠOpen": 8057,
      "itter": 8058,
      "ĠID": 8059,
      "è¦ª": 8060,
      "Ġ|Ċ": 8061,
      "éłĺ": 8062,
      "ĠSy": 8063,
      "åıįåºĶ": 8064,
      "ä¸ĭéĻį": 8065,
      "ÑĤ": 8066,
      "ä¸Ģæł·": 8067,
      "Ġclick": 8068,
      "Ġcouple": 8069,
      "è¡ĮåĬ¨": 8070,
      "\"çļĦ": 8071,
      "æ²Ĵ": 8072,
      "ontal": 8073,
      "rence": 8074,
      "PO": 8075,
      "éļĶ": 8076,
      ",ä»¥": 8077,
      "Ġsigns": 8078,
      "Ġtrust": 8079,
      "è½ī": 8080,
      "ĠGoogle": 8081,
      "åºĨ": 8082,
      "ĠJack": 8083,
      "ĠStreet": 8084,
      "æĢ§èĥ½": 8085,
      "Ġdefine": 8086,
      "è¿Ķ": 8087,
      "Ġsuggests": 8088,
      "Ext": 8089,
      "æĶ¯ä»ĺ": 8090,
      "ç¹ģ": 8091,
      ",ä¹Ł": 8092,
      "ĠMil": 8093,
      "Ġri": 8094,
      "Ġdoll": 8095,
      "Ġappoint": 8096,
      "ï¼Įè®©": 8097,
      "ĠStand": 8098,
      "ï¼Įä½Ĩæĺ¯": 8099,
      "ç§°ä¸º": 8100,
      "åĺī": 8101,
      "çĽ¸å¯¹": 8102,
      "ãĢįï¼Į": 8103,
      "åİĭåĬĽ": 8104,
      "pat": 8105,
      "pm": 8106,
      "itors": 8107,
      "Ġscore": 8108,
      "Ġ->": 8109,
      "Ġrecorded": 8110,
      "åĪº": 8111,
      "rieved": 8112,
      "ä¸ģ": 8113,
      "ĠNews": 8114,
      "Ġque": 8115,
      "Ġevolution": 8116,
      "Ġreturns": 8117,
      "è¶ĭ": 8118,
      "Ġantib": 8119,
      "Ġfont": 8120,
      "Ð½": 8121,
      "[\"": 8122,
      "äº®": 8123,
      "van": 8124,
      "èĲ¨": 8125,
      "ĠWell": 8126,
      "Ġbelief": 8127,
      "é¥®": 8128,
      "ĠSpanish": 8129,
      "Ġmultip": 8130,
      "ĠUsing": 8131,
      "Ġschem": 8132,
      "Ġfresh": 8133,
      "ĠFore": 8134,
      "Ġmeasured": 8135,
      "tn": 8136,
      "onic": 8137,
      "crete": 8138,
      "(r": 8139,
      "Ġchallenge": 8140,
      "soft": 8141,
      "Ġadjust": 8142,
      "æĽ¿": 8143,
      "ett": 8144,
      "())Ċ": 8145,
      "èĮ¶": 8146,
      "Ġbirds": 8147,
      "apes": 8148,
      "Ġweak": 8149,
      "æĪ²": 8150,
      "ãĢĭãĢģ": 8151,
      "çľĭåĪ°": 8152,
      "ymbol": 8153,
      "ario": 8154,
      "ĠMult": 8155,
      "Client": 8156,
      "DB": 8157,
      "å¤ĸéĥ¨éĢ£çµĲ": 8158,
      "ĉd": 8159,
      "ctx": 8160,
      "éĽħ": 8161,
      "ĠSecond": 8162,
      "cular": 8163,
      "ï¼ĮåĽł": 8164,
      "Ġwasn": 8165,
      "Ġabsor": 8166,
      "æ»¡è¶³": 8167,
      "åĿ¡": 8168,
      "åķĨåĵģ": 8169,
      "ĠTV": 8170,
      "Ġdetect": 8171,
      "èĭ¦": 8172,
      "ributes": 8173,
      "ä¸ĢçĽ´": 8174,
      "ota": 8175,
      "Ġdeaths": 8176,
      "ĠMicro": 8177,
      "Ġtrou": 8178,
      "Ġbelieved": 8179,
      "wide": 8180,
      "Ġstorage": 8181,
      "åĲĹ": 8182,
      "ĠIts": 8183,
      "Ġshared": 8184,
      "tage": 8185,
      "arp": 8186,
      "ĠHen": 8187,
      "Ġwinter": 8188,
      "âĢĿĊ": 8189,
      "éģŃ": 8190,
      "Date": 8191,
      "ald": 8192,
      "ĠLou": 8193,
      "Ġbelong": 8194,
      "Ġbatter": 8195,
      "start": 8196,
      "å®ĩ": 8197,
      "çīĽ": 8198,
      "æ¸¸æĪı": 8199,
      "Ġdatabase": 8200,
      "Ġalternative": 8201,
      "inder": 8202,
      "ä¸ĵå®¶": 8203,
      "isher": 8204,
      "çļĦäºĭ": 8205,
      "ĠInternet": 8206,
      "æĭį": 8207,
      "æ°£": 8208,
      "Ġagreed": 8209,
      "äºĮåįģ": 8210,
      "Ġsynt": 8211,
      "ï¼Įä»¥åıĬ": 8212,
      "Ġdomain": 8213,
      "Ġmaster": 8214,
      "ä½ĵçļĦ": 8215,
      "Ġbuildings": 8216,
      "èĩªåĬ¨": 8217,
      "ç½ļ": 8218,
      "Ġgoals": 8219,
      "\\right": 8220,
      "Ġphone": 8221,
      "Ġthousands": 8222,
      "ç¿»": 8223,
      "Ġhop": 8224,
      "ä¸įå¾Ĺ": 8225,
      "ï¼Įå¦Ĥæŀľ": 8226,
      "Ġlayer": 8227,
      "atever": 8228,
      "ä½įæĸ¼": 8229,
      "Ġhelped": 8230,
      "éĽĨä¸Ń": 8231,
      "/h": 8232,
      "estions": 8233,
      "éģį": 8234,
      "èĩªèº«": 8235,
      "åĨ°": 8236,
      "Ġwait": 8237,
      "weight": 8238,
      "riage": 8239,
      "Ġscen": 8240,
      "Ġoffset": 8241,
      "PM": 8242,
      "Ġvoice": 8243,
      "åĬĽéĩı": 8244,
      "format": 8245,
      "Ġextremely": 8246,
      "Ġrepro": 8247,
      "åĬŀæ³ķ": 8248,
      "Ġhappened": 8249,
      "(S": 8250,
      "åĦ¿ç«¥": 8251,
      "Ġowners": 8252,
      "Ġinsp": 8253,
      "ĠRad": 8254,
      "Ġlegis": 8255,
      "åĪ©çĽĬ": 8256,
      "è¯Ĭ": 8257,
      "éĻ³": 8258,
      "works": 8259,
      "Ġemb": 8260,
      "Ġagre": 8261,
      "iced": 8262,
      "Ġestimated": 8263,
      "Ġmeant": 8264,
      "Ġsomew": 8265,
      "-H": 8266,
      "Ġdirector": 8267,
      "ĠCentral": 8268,
      "Ġliqu": 8269,
      "essor": 8270,
      "Comm": 8271,
      "äººå·¥": 8272,
      "æĪĲæŀľ": 8273,
      "è¯´æĺİ": 8274,
      "Ġconducted": 8275,
      "Ġkept": 8276,
      "roke": 8277,
      "ICE": 8278,
      "ĠStage": 8279,
      "max": 8280,
      "istan": 8281,
      "åľĭå®¶": 8282,
      "{{": 8283,
      "Ġreb": 8284,
      "æ½®": 8285,
      "ĠWIT": 8286,
      "åħ»èĢģ": 8287,
      ".L": 8288,
      "èĽĭ": 8289,
      "Ġinterview": 8290,
      "Ġbecoming": 8291,
      "Ġtox": 8292,
      "Ġepis": 8293,
      "Page": 8294,
      "ĠDirect": 8295,
      "ini": 8296,
      "Ġmostly": 8297,
      "ï¼ļĊĊ": 8298,
      "è¯ģæĺİ": 8299,
      "font": 8300,
      "ested": 8301,
      "çİ°è±¡": 8302,
      "Ġsizeof": 8303,
      "/L": 8304,
      "Ġ>=": 8305,
      "aped": 8306,
      "ĠNor": 8307,
      "Ġweap": 8308,
      "ä¸ĭçļĦ": 8309,
      "è´´": 8310,
      "æ¨Ļ": 8311,
      "MP": 8312,
      "Ġwave": 8313,
      "è®¤è¯Ĩ": 8314,
      "(h": 8315,
      "\\Ċ": 8316,
      "eal": 8317,
      ",è¿Ļ": 8318,
      "ĠEvery": 8319,
      "åľĪ": 8320,
      "åħ¨éĥ¨": 8321,
      "åıĬåħ¶": 8322,
      "Ġinterested": 8323,
      "Ġadding": 8324,
      "<a": 8325,
      "çĥŁ": 8326,
      "è¸": 8327,
      "eria": 8328,
      "Ġsubsequ": 8329,
      "æĮĩåĩº": 8330,
      "Ġbra": 8331,
      "aste": 8332,
      "åĿ¦": 8333,
      "Ġrail": 8334,
      "Ġanswers": 8335,
      "Ġaren": 8336,
      "Do": 8337,
      "Ġreaction": 8338,
      "Ġscript": 8339,
      "Ġvary": 8340,
      "ooth": 8341,
      "ĠNav": 8342,
      "ĠLord": 8343,
      "æ¨¡åŀĭ": 8344,
      "é½Ĳ": 8345,
      "Ġrequirements": 8346,
      "ä»ģ": 8347,
      "Ġfif": 8348,
      "\",\"": 8349,
      "ĠExp": 8350,
      "æľĹ": 8351,
      "å¯¹è±¡": 8352,
      "Ġ;": 8353,
      "Check": 8354,
      "Ġcollabor": 8355,
      "water": 8356,
      "Ġisol": 8357,
      "Ġunf": 8358,
      "Ġcontrast": 8359,
      "AGE": 8360,
      "';Ċ": 8361,
      "æĸĩç«ł": 8362,
      "é¤Ĳ": 8363,
      "åĩĢ": 8364,
      "Ġfeeling": 8365,
      "OC": 8366,
      "Ġparameters": 8367,
      "ĠĠĠĠĠĠĠĠĊ": 8368,
      "Builder": 8369,
      "çĻ»è®°": 8370,
      "Ġlived": 8371,
      "Ġonto": 8372,
      "å¼·": 8373,
      "éĽĨåĽ¢": 8374,
      ",æĺ¯": 8375,
      "Ġmetal": 8376,
      "icenses": 8377,
      "æķĪçİĩ": 8378,
      "ĠSal": 8379,
      "åİļ": 8380,
      "çļĦæľĢ": 8381,
      "Ġadvanced": 8382,
      "æĻ®éĢļ": 8383,
      "Ġplanning": 8384,
      "Ġappeared": 8385,
      "Act": 8386,
      "iform": 8387,
      "æŃ£åľ¨": 8388,
      "Ġhoriz": 8389,
      "æķĻæİĪ": 8390,
      "è´¥": 8391,
      "Ġpark": 8392,
      "ĠCalcul": 8393,
      "æĪ¿å±ĭ": 8394,
      "ools": 8395,
      "Ġmo": 8396,
      "Ġfruit": 8397,
      "Ġcitizens": 8398,
      "olor": 8399,
      "éĮĦ": 8400,
      "Ġship": 8401,
      "Ġraise": 8402,
      "$.": 8403,
      "True": 8404,
      "åľĸ": 8405,
      "exp": 8406,
      "Ġgrand": 8407,
      "Ġassign": 8408,
      "plicit": 8409,
      "Number": 8410,
      "åĬłåħ¥": 8411,
      "æī¶": 8412,
      "Ġrespectively": 8413,
      "Ġsexual": 8414,
      "using": 8415,
      "çī©è´¨": 8416,
      "Ġcontinuous": 8417,
      "ĠAR": 8418,
      "Ġcalls": 8419,
      "ĠPen": 8420,
      "Ġmissing": 8421,
      "åĬªåĬĽ": 8422,
      "å¹´æĿ¥": 8423,
      "çĭ¬ç«ĭ": 8424,
      "oting": 8425,
      "åĬłå¿«": 8426,
      "Ġauthors": 8427,
      "olf": 8428,
      "Ġ>>": 8429,
      "Ġmeeting": 8430,
      "PU": 8431,
      "Ġhyper": 8432,
      "ville": 8433,
      "å¢ŀå¼º": 8434,
      "ĠProv": 8435,
      "åĶ¯": 8436,
      "å½¹": 8437,
      "Property": 8438,
      "ÑĢ": 8439,
      "Ġà¤": 8440,
      "Ġfloat": 8441,
      "Why": 8442,
      "actor": 8443,
      "rics": 8444,
      "si": 8445,
      "æ²ī": 8446,
      "ç¤¼": 8447,
      "Ġunivers": 8448,
      "theta": 8449,
      "éĺħè¯»": 8450,
      "ACK": 8451,
      "Ġencourag": 8452,
      "å°Ĭ": 8453,
      "ĠIsland": 8454,
      "Ġdistrict": 8455,
      "ç»Łè®¡": 8456,
      "Ġfamous": 8457,
      "çĸ¾çĹħ": 8458,
      ".re": 8459,
      "Mat": 8460,
      "rehens": 8461,
      "Ġremaining": 8462,
      "Ġcircuit": 8463,
      "ĠGovernment": 8464,
      "ugin": 8465,
      "Ġannual": 8466,
      "å«": 8467,
      "æĬĵ": 8468,
      "Ġtalking": 8469,
      "ĠSocial": 8470,
      "å¹³æĸ¹": 8471,
      "ï¼ĮåĮħæĭ¬": 8472,
      "la": 8473,
      "Ñģ": 8474,
      "ologist": 8475,
      "ĠMag": 8476,
      "Ġgrade": 8477,
      "èģĶç³»": 8478,
      "Ġparallel": 8479,
      "Ġwest": 8480,
      "ĠÎ±": 8481,
      "åĪĨä¸º": 8482,
      "Ġdynam": 8483,
      "Ġmorning": 8484,
      "Ð¾Ð": 8485,
      "æĮĳ": 8486,
      "Ġnumerous": 8487,
      "Ġing": 8488,
      "Ġlock": 8489,
      "Ġaccepted": 8490,
      "ĠTw": 8491,
      "ä¼¦": 8492,
      "Ġshift": 8493,
      "ĠFunction": 8494,
      "elines": 8495,
      "Ġconver": 8496,
      "ĠOnce": 8497,
      "Ġsand": 8498,
      "Ġthick": 8499,
      "Ġstrategy": 8500,
      "ĠSqu": 8501,
      "ç»´æĬ¤": 8502,
      "alian": 8503,
      "Ġshowing": 8504,
      "equal": 8505,
      "ĠSte": 8506,
      "ĠAny": 8507,
      "ä¼´": 8508,
      "ĠAcadem": 8509,
      "Ġfloor": 8510,
      "mem": 8511,
      "Ġbill": 8512,
      "ĠKore": 8513,
      "Ġparticipants": 8514,
      "çº¸": 8515,
      "ĠUSA": 8516,
      "è¿ģ": 8517,
      "Ġexternal": 8518,
      "EY": 8519,
      "])": 8520,
      "ĠFOR": 8521,
      "åĩºäºĨ": 8522,
      "æĿĢ": 8523,
      "ï¼ĮåıĪ": 8524,
      "è¿İ": 8525,
      "ĠBro": 8526,
      "Ġrh": 8527,
      "éĻ¸": 8528,
      "ĠKh": 8529,
      "long": 8530,
      "Ġbone": 8531,
      "æ¯ķä¸ļ": 8532,
      "msg": 8533,
      "ç²ī": 8534,
      "ums": 8535,
      "standing": 8536,
      "options": 8537,
      "èĭĹ": 8538,
      "èİ«": 8539,
      "Ġanx": 8540,
      "Ġmuscle": 8541,
      ")ï¼Į": 8542,
      "ĉvar": 8543,
      "Your": 8544,
      "Ġliterature": 8545,
      "åŁºäºİ": 8546,
      "è¿ŀæİ¥": 8547,
      "Ġinjury": 8548,
      "(C": 8549,
      "ĠĊĠĊ": 8550,
      "icated": 8551,
      "Ġcreation": 8552,
      "ĠJul": 8553,
      "å·¥åħ·": 8554,
      "strong": 8555,
      "eles": 8556,
      "ructure": 8557,
      "ARE": 8558,
      "ä¸½": 8559,
      "-T": 8560,
      "raint": 8561,
      ".size": 8562,
      "otic": 8563,
      ".y": 8564,
      "Ġreality": 8565,
      "Ġelimin": 8566,
      "Ġpieces": 8567,
      "èļ": 8568,
      "ĠMount": 8569,
      "ĠMem": 8570,
      "Ġattract": 8571,
      "Ġexists": 8572,
      "ua": 8573,
      "nergy": 8574,
      "ä¹ĭéĹ´çļĦ": 8575,
      "oved": 8576,
      "Ġsurvey": 8577,
      "å¡ĳ": 8578,
      "Ġbirths": 8579,
      "AND": 8580,
      "ä¸įä»ħ": 8581,
      "Ġteach": 8582,
      "è´·æ¬¾": 8583,
      "iant": 8584,
      "Ġuns": 8585,
      "Figure": 8586,
      "root": 8587,
      "Ġgenes": 8588,
      "å·¦åı³": 8589,
      "æ»ĳ": 8590,
      "é¾Ħ": 8591,
      "vector": 8592,
      "Ġinfo": 8593,
      "ĠMont": 8594,
      "ĠGreek": 8595,
      "ipl": 8596,
      "éĤ¦": 8597,
      "Ġimmune": 8598,
      "Ġseconds": 8599,
      "Ġec": 8600,
      "avas": 8601,
      "ĠThomas": 8602,
      "Ġopposite": 8603,
      "Ġ*)": 8604,
      "Ġreferred": 8605,
      "Ġunknown": 8606,
      "ĠNumber": 8607,
      "Ġillness": 8608,
      "äºķ": 8609,
      "printf": 8610,
      "Ã¤": 8611,
      "Äģ": 8612,
      "Ġcolle": 8613,
      "å¼ķå¯¼": 8614,
      "è½¯ä»¶": 8615,
      "Ġsettings": 8616,
      "ILE": 8617,
      "bert": 8618,
      "abul": 8619,
      "åľ°äº§": 8620,
      "----------------------------------------------------------------": 8621,
      "æ¥µ": 8622,
      "æ¸©åº¦": 8623,
      "é²ģ": 8624,
      "Ġpun": 8625,
      "è¿ĺæľī": 8626,
      "-L": 8627,
      "åĩ½": 8628,
      "Ġmilk": 8629,
      "ĠId": 8630,
      "irty": 8631,
      "Ġeducational": 8632,
      "IGN": 8633,
      "under": 8634,
      "Ġsoft": 8635,
      "Ġagree": 8636,
      "Ġiron": 8637,
      "çħ¤": 8638,
      "Ġfrequently": 8639,
      "Ġprem": 8640,
      "æķ´ä¸ª": 8641,
      "çľŁæŃ£": 8642,
      ".N": 8643,
      "åīµ": 8644,
      "åħļçļĦ": 8645,
      "Ġmotor": 8646,
      "-sc": 8647,
      "éľĩ": 8648,
      "Ġrepresented": 8649,
      "Ġ===": 8650,
      "æ¬Ĭ": 8651,
      "gypt": 8652,
      "Ġtrib": 8653,
      "æĿ¨": 8654,
      "Ġsufficient": 8655,
      "Ġvs": 8656,
      "Ġprove": 8657,
      "æ´Ĺ": 8658,
      "éĴŁ": 8659,
      "center": 8660,
      "remove": 8661,
      "IES": 8662,
      "Ġeast": 8663,
      "Ġcharacteristics": 8664,
      "//Ċ": 8665,
      "ĠProble": 8666,
      "ä¹¦è®°": 8667,
      "ena": 8668,
      "Ġadvantage": 8669,
      "Ġsen": 8670,
      "Ġfix": 8671,
      "SM": 8672,
      "èķ": 8673,
      "ç¡®ä¿Ŀ": 8674,
      "æ¹¾": 8675,
      "ATION": 8676,
      "é±¼": 8677,
      "%)": 8678,
      "Ġconvers": 8679,
      "åĮĸåŃ¦": 8680,
      "Ġraised": 8681,
      "ĠArab": 8682,
      "Ġgod": 8683,
      "åİħ": 8684,
      "Ġemphas": 8685,
      "ĠBay": 8686,
      "ĠRobert": 8687,
      "Ġsac": 8688,
      "Ġwonder": 8689,
      "è¯¸": 8690,
      "ä»Ĭå¹´": 8691,
      "æ½ľ": 8692,
      "æĢİä¹Ī": 8693,
      "gency": 8694,
      "è°ĵ": 8695,
      "åĨħéĥ¨": 8696,
      "Ġexplore": 8697,
      "_ERR": 8698,
      "Ġpush": 8699,
      "ĠFlor": 8700,
      "æĿ¥æºĲ": 8701,
      "Ġgenerated": 8702,
      "Ġleads": 8703,
      "_TYPE": 8704,
      "gent": 8705,
      "ĠMuseum": 8706,
      "Ġrank": 8707,
      "umns": 8708,
      "pping": 8709,
      "ä¸»ä»»": 8710,
      "Ġindicate": 8711,
      "ATA": 8712,
      "IX": 8713,
      "PR": 8714,
      "Ġimplied": 8715,
      "ĠWil": 8716,
      "Ġcombined": 8717,
      "Ġtrial": 8718,
      "ĠTop": 8719,
      "åįıè®®": 8720,
      "ĠMass": 8721,
      "Ġpal": 8722,
      "ano": 8723,
      "iverse": 8724,
      "Ġdomin": 8725,
      "(String": 8726,
      "-a": 8727,
      "-time": 8728,
      "Ġstated": 8729,
      "life": 8730,
      "Ġsession": 8731,
      "Ġbreath": 8732,
      "éī´": 8733,
      "Ġtag": 8734,
      "Ġdiss": 8735,
      "éĿ¢çļĦ": 8736,
      "Ġextends": 8737,
      "èĥ¡": 8738,
      "Ġpaid": 8739,
      "åŃ¦ç§ĳ": 8740,
      "Ġkg": 8741,
      "ĠDistrict": 8742,
      "Ġchain": 8743,
      "ĠSO": 8744,
      "ä½ľèĢħ": 8745,
      "Ġgenerate": 8746,
      "Ġmovie": 8747,
      ".append": 8748,
      "iler": 8749,
      "æ¡Īä»¶": 8750,
      "Ġ]": 8751,
      "éģĵè·¯": 8752,
      "ortunately": 8753,
      "åģļå¥½": 8754,
      "offset": 8755,
      "ln": 8756,
      "ï¼Įåıª": 8757,
      "(e": 8758,
      "Ġlisted": 8759,
      "æ¶īåıĬ": 8760,
      "Ġbrief": 8761,
      "ampionship": 8762,
      "æģ¶": 8763,
      "ĠCheck": 8764,
      "Ġvillage": 8765,
      "Ġlinked": 8766,
      "Ġchallenges": 8767,
      "writ": 8768,
      "Ġfreedom": 8769,
      "sl": 8770,
      "otion": 8771,
      "ĠIr": 8772,
      "ä¹Ļ": 8773,
      "Ġdepression": 8774,
      "ancing": 8775,
      "Ġnumer": 8776,
      "Ġauto": 8777,
      "ä¹±": 8778,
      "ï¼ĮæĽ´": 8779,
      "Ġvess": 8780,
      "å°º": 8781,
      "Ġ[@": 8782,
      "Ġhousehold": 8783,
      "ĠMexico": 8784,
      "parent": 8785,
      "ĠBig": 8786,
      "Handler": 8787,
      "å¢Ļ": 8788,
      "/g": 8789,
      "Ġprepar": 8790,
      "Ass": 8791,
      "Ġcert": 8792,
      "çĹħæ¯Ĵ": 8793,
      "éĻĲåĪ¶": 8794,
      "ĠÂ±": 8795,
      "èį£": 8796,
      "ologists": 8797,
      "Ġfaith": 8798,
      ".io": 8799,
      "ulum": 8800,
      "Ġidentity": 8801,
      "æĺ¯ä¸Ģç§į": 8802,
      "æ·±åħ¥": 8803,
      "Ġcertainly": 8804,
      "inner": 8805,
      "Ġremained": 8806,
      "ECT": 8807,
      "Ġcurve": 8808,
      "æ¶¦": 8809,
      "ĠParty": 8810,
      "Ġinnov": 8811,
      "èĢĹ": 8812,
      "Ġangles": 8813,
      "PT": 8814,
      "ĠHREF": 8815,
      "âĢĿ,": 8816,
      "Ġwidely": 8817,
      "Rem": 8818,
      "ona": 8819,
      "ãĢĤåĽłæŃ¤": 8820,
      "éĹŃ": 8821,
      "Ġorganizations": 8822,
      "çļĦä¸»è¦ģ": 8823,
      "å®«": 8824,
      "åĢĴ": 8825,
      "YS": 8826,
      "åĨ¬": 8827,
      "hematical": 8828,
      "(v": 8829,
      "Ġmur": 8830,
      "æ¹¿": 8831,
      "Ġurl": 8832,
      "olid": 8833,
      "çĶŁéķ¿": 8834,
      "ĠLeg": 8835,
      "_lock": 8836,
      "bal": 8837,
      "Ġdivision": 8838,
      "ĠAnswer": 8839,
      "ĠPower": 8840,
      "èĦī": 8841,
      "æī¿æĭħ": 8842,
      "Ġbond": 8843,
      "å½ĵæĹ¶": 8844,
      "poses": 8845,
      "çĽ¸åĲĮ": 8846,
      "perties": 8847,
      "edy": 8848,
      "åŁºåľ°": 8849,
      "è£Ĥ": 8850,
      "zh": 8851,
      "astern": 8852,
      "èĭ±åĽ½": 8853,
      "sey": 8854,
      "Ġfraction": 8855,
      "éĽª": 8856,
      "Ġempty": 8857,
      ".v": 8858,
      "Back": 8859,
      "More": 8860,
      "Ġmort": 8861,
      "xygen": 8862,
      "æ¦Ĥå¿µ": 8863,
      "ĠSmith": 8864,
      "Ġlanguages": 8865,
      "ĠNov": 8866,
      "Ġinvolve": 8867,
      "eding": 8868,
      "alloc": 8869,
      "kg": 8870,
      "Ġwants": 8871,
      "imple": 8872,
      "times": 8873,
      "é²ľ": 8874,
      "Ġbodies": 8875,
      "Ġexcess": 8876,
      "Ġprocessing": 8877,
      "Ġmarried": 8878,
      "åıĥèĢĥè³ĩæĸĻ": 8879,
      "Ġstrategies": 8880,
      "Base": 8881,
      "Ġ=Ċ": 8882,
      "Ġspecified": 8883,
      "Ġprison": 8884,
      "Ġproof": 8885,
      "æŀĦå»º": 8886,
      "èĹĿ": 8887,
      "Ġdecisions": 8888,
      "Ġslightly": 8889,
      "Ġvelocity": 8890,
      "iders": 8891,
      "Ġvision": 8892,
      "Fl": 8893,
      "æķ°éĩı": 8894,
      "åĮ»éĻ¢": 8895,
      "ĠMichael": 8896,
      "Ġshot": 8897,
      "space": 8898,
      "Ġpartners": 8899,
      "Ġgirls": 8900,
      "è¡£": 8901,
      "ä¸įè¶³": 8902,
      "éĩįæĸ°": 8903,
      "å¹¸": 8904,
      "èĤ¥": 8905,
      "Ġhttps": 8906,
      "avascript": 8907,
      "åŁĥ": 8908,
      "================================": 8909,
      "_re": 8910,
      "æĹĭ": 8911,
      "ILITY": 8912,
      "base": 8913,
      "ĠChe": 8914,
      "ĠLong": 8915,
      "Ġmargin": 8916,
      "ĠBoth": 8917,
      "éĥ¡": 8918,
      "itory": 8919,
      "ims": 8920,
      "æĬĢèĥ½": 8921,
      "Ġtechnique": 8922,
      "ĠScott": 8923,
      "<p": 8924,
      "hent": 8925,
      "amental": 8926,
      "Ġsurgery": 8927,
      "-P": 8928,
      "Instance": 8929,
      "æı´": 8930,
      "){Ċ": 8931,
      "ĠWomen": 8932,
      "Ġleader": 8933,
      "è¯Ħä¼°": 8934,
      "Ġconcepts": 8935,
      "ossible": 8936,
      "ĠAsia": 8937,
      "adata": 8938,
      "æİĮæı¡": 8939,
      "ĠOh": 8940,
      "æĪª": 8941,
      "åĿĲ": 8942,
      "éĽ¢": 8943,
      "enced": 8944,
      "Ġsell": 8945,
      "ĠAut": 8946,
      "ĠExample": 8947,
      "Ġspeech": 8948,
      "æ¡£": 8949,
      "Box": 8950,
      "FC": 8951,
      "ĠEnvironment": 8952,
      "erent": 8953,
      "Ġconsumption": 8954,
      "å®¶éķ¿": 8955,
      "Ġdecades": 8956,
      "\").": 8957,
      "faces": 8958,
      "ĠAlex": 8959,
      "Ġblog": 8960,
      "éĤĦ": 8961,
      "oom": 8962,
      "Ġpopulations": 8963,
      "æľĭ": 8964,
      "Ġproposed": 8965,
      "ba": 8966,
      "Ġmice": 8967,
      "äºĭä¸ļ": 8968,
      "translation": 8969,
      "Ġleaving": 8970,
      "Ġmedicine": 8971,
      "page": 8972,
      "ola": 8973,
      "åĪĬ": 8974,
      "Ġenem": 8975,
      "UD": 8976,
      "Ġliber": 8977,
      "èĥĮæĻ¯": 8978,
      "Ġcausing": 8979,
      "MT": 8980,
      "Ġtwice": 8981,
      "çĦ¦": 8982,
      "lope": 8983,
      "ester": 8984,
      "åħĴ": 8985,
      "çºĮ": 8986,
      "ä¼ĺåĮĸ": 8987,
      "Ġstuff": 8988,
      "ensus": 8989,
      "Ġadult": 8990,
      "ĠShow": 8991,
      "Ġtrend": 8992,
      "ĠReview": 8993,
      "ï½ŀ": 8994,
      "Ġinches": 8995,
      "Ġessay": 8996,
      "Pre": 8997,
      "erial": 8998,
      "older": 8999,
      "æ¶¨": 9000,
      "---": 9001,
      "ĠFranc": 9002,
      "æĳĦ": 9003,
      "select": 9004,
      "Note": 9005,
      "å¯»": 9006,
      "é«ĺåº¦": 9007,
      "Ġdepends": 9008,
      "æİ¢ç´¢": 9009,
      "Ġcredit": 9010,
      "çº·": 9011,
      "åĵģçīĮ": 9012,
      "è«ĸ": 9013,
      "Ġassessment": 9014,
      "Ġcro": 9015,
      "Ġdepending": 9016,
      "ĠCH": 9017,
      "ĉthis": 9018,
      "å¹´åº¦": 9019,
      "update": 9020,
      "çĩŁ": 9021,
      "ĠFrank": 9022,
      "Ġfol": 9023,
      "Ġintellig": 9024,
      "ĠCompany": 9025,
      "Ġopportunities": 9026,
      "Ġelection": 9027,
      "Me": 9028,
      "Ġspend": 9029,
      "å®ħ": 9030,
      "Ġrelation": 9031,
      "Ġinvolves": 9032,
      "hetic": 9033,
      "command": 9034,
      "å°¤åħ¶": 9035,
      "Dev": 9036,
      "ãĢĤå¦Ĥæŀľ": 9037,
      "ensor": 9038,
      "Ġapparent": 9039,
      "*/Ċ": 9040,
      "Ġprocedure": 9041,
      "æľīéĻĲåħ¬åı¸": 9042,
      "è®°å½ķ": 9043,
      "FONT": 9044,
      "Ġroots": 9045,
      "etch": 9046,
      "ĠLife": 9047,
      "ï¼ĮéĢļè¿ĩ": 9048,
      "Ġgarden": 9049,
      "ĠDevelopment": 9050,
      "è¿ĲçĶ¨": 9051,
      "UB": 9052,
      "Char": 9053,
      "å®£ä¼ł": 9054,
      "sembly": 9055,
      "Ġproperly": 9056,
      "Ġrelevant": 9057,
      "js": 9058,
      "ĠOld": 9059,
      "rations": 9060,
      "ĠHistor": 9061,
      "Ġdespite": 9062,
      "Ġdaughter": 9063,
      "ãĢĤåħ¶": 9064,
      "Ġdisorder": 9065,
      "ä¸°å¯Į": 9066,
      "sole": 9067,
      "However": 9068,
      "ĠNote": 9069,
      "oking": 9070,
      "even": 9071,
      "æķı": 9072,
      "æĵļ": 9073,
      "ĠExpl": 9074,
      "Content": 9075,
      "mas": 9076,
      "Ġfaster": 9077,
      "FS": 9078,
      "lymp": 9079,
      "Other": 9080,
      "ĠFe": 9081,
      "éĵģè·¯": 9082,
      "èĩ£": 9083,
      "æĺ¯æĮĩ": 9084,
      "æĸĩæĺİ": 9085,
      "è¡ĮçļĦ": 9086,
      "Ġforced": 9087,
      "ĠRetrieved": 9088,
      "ENSE": 9089,
      "è¿«": 9090,
      "dule": 9091,
      "Ġterrit": 9092,
      "GB": 9093,
      "åľĨ": 9094,
      "Ġviews": 9095,
      "Ġpriv": 9096,
      "ĠIP": 9097,
      "Since": 9098,
      "akers": 9099,
      "ront": 9100,
      "ĠEgypt": 9101,
      "åºĦ": 9102,
      "Ġletters": 9103,
      "care": 9104,
      "Ġisland": 9105,
      "RA": 9106,
      "ga": 9107,
      "ç¼ĺ": 9108,
      "æµĭè¯ķ": 9109,
      "ACT": 9110,
      "lets": 9111,
      "iable": 9112,
      "Ġexperiences": 9113,
      "ĠHuman": 9114,
      "last": 9115,
      "ä¸ĢåĢĭ": 9116,
      ".class": 9117,
      "ilit": 9118,
      "Ġrecommended": 9119,
      "ĠHall": 9120,
      "_init": 9121,
      "Ġcomments": 9122,
      "åł¡": 9123,
      "Ġaspects": 9124,
      "aph": 9125,
      "æ¥ļ": 9126,
      "Ġteams": 9127,
      "ä¸īä¸ª": 9128,
      "ä¹¡æĿĳ": 9129,
      "ï¼ĮåĲĮæĹ¶": 9130,
      "Step": 9131,
      "tx": 9132,
      "åĽ½åĬ¡": 9133,
      "Ġinvent": 9134,
      "Ġcere": 9135,
      "èª¿": 9136,
      "ĠGold": 9137,
      "Ġaward": 9138,
      "çŃ¹": 9139,
      "éİ": 9140,
      "ulf": 9141,
      "Ġalgorithm": 9142,
      "ç¤¾ä¼ļä¸»ä¹ī": 9143,
      "Ġintended": 9144,
      "Ġexpressed": 9145,
      "buf": 9146,
      "æ¯Ķä¾ĭ": 9147,
      "itionally": 9148,
      "Ġincorpor": 9149,
      "ĠFurther": 9150,
      "éłħ": 9151,
      "ï¼Įä¸İ": 9152,
      "è´¹çĶ¨": 9153,
      "æĭĵ": 9154,
      "æ²Ł": 9155,
      "çļĦå·¥ä½ľ": 9156,
      "è´¯": 9157,
      "Next": 9158,
      "Ġyellow": 9159,
      "æģ¢": 9160,
      "Ġstarts": 9161,
      "ãĢĭãĢģãĢĬ": 9162,
      "osc": 9163,
      "ĠĠĠĠĠĠĠĠĠĠĠĠĠĠĠĠĠĠĠĠĠ": 9164,
      "çĶµå½±": 9165,
      "Pol": 9166,
      "Ġpolicies": 9167,
      "nic": 9168,
      "Ġsuggested": 9169,
      "ĠSuper": 9170,
      "è¡Ľ": 9171,
      "ishes": 9172,
      "ï¼īçļĦ": 9173,
      "Ġjoined": 9174,
      "Ġflag": 9175,
      "Ġurban": 9176,
      "\"\"": 9177,
      "close": 9178,
      ".H": 9179,
      "Ġindustrial": 9180,
      "emp": 9181,
      "iveness": 9182,
      "Ġhomes": 9183,
      "æŀĦæĪĲ": 9184,
      "ĠCarol": 9185,
      "Ġprofessor": 9186,
      "Ġpercentage": 9187,
      "Prov": 9188,
      "Ġdangerous": 9189,
      "Ġ<=": 9190,
      "Method": 9191,
      ".pro": 9192,
      "/f": 9193,
      "othing": 9194,
      "Ġflat": 9195,
      "Ġnd": 9196,
      "åı¬": 9197,
      "Ġplays": 9198,
      "Ge": 9199,
      "é»¨": 9200,
      "å¡«": 9201,
      "_.": 9202,
      "ĠCard": 9203,
      "Ġrelationships": 9204,
      "çĽ¸åºĶ": 9205,
      "(g": 9206,
      "Oper": 9207,
      "den": 9208,
      "å®īè£ħ": 9209,
      "éŁ³æ¨Ĥ": 9210,
      "Output": 9211,
      "HOUT": 9212,
      "Ġmel": 9213,
      "&nbsp": 9214,
      "win": 9215,
      "num": 9216,
      "-related": 9217,
      "OV": 9218,
      "ston": 9219,
      "å¿ħè¦ģ": 9220,
      "-old": 9221,
      "åįĶ": 9222,
      "æķ´ä½ĵ": 9223,
      "äººæ°ĳåħ±åĴĮåĽ½": 9224,
      "ĠEN": 9225,
      "ĠEngine": 9226,
      "ements": 9227,
      "å²Ĺ": 9228,
      "SL": 9229,
      "vec": 9230,
      "Ġoffered": 9231,
      "è´¸æĺĵ": 9232,
      "Ġplastic": 9233,
      "åĬĽçļĦ": 9234,
      "Ġradiation": 9235,
      "Ġarticles": 9236,
      ".png": 9237,
      "è§Ģ": 9238,
      "Ġimplementation": 9239,
      "-like": 9240,
      "Ġguess": 9241,
      "Cell": 9242,
      "Ġchronic": 9243,
      "Ġtells": 9244,
      "cluded": 9245,
      "ï¼ĮèĢĮä¸Ķ": 9246,
      "Ġsubjects": 9247,
      "Load": 9248,
      "ï¼ĮåĽłä¸º": 9249,
      "Ġprepared": 9250,
      "Ġreduction": 9251,
      "å¤įæĿĤ": 9252,
      "Ġmanufacture": 9253,
      "æ¼«": 9254,
      "ictionary": 9255,
      "Off": 9256,
      "legal": 9257,
      "Ġplot": 9258,
      "RT": 9259,
      "æ´ŀ": 9260,
      "ĠAT": 9261,
      "é§": 9262,
      "ĠSing": 9263,
      "è¯ĳ": 9264,
      "Ġstudied": 9265,
      "ĠEnd": 9266,
      "URE": 9267,
      "æĿľ": 9268,
      "Ġinteger": 9269,
      "adow": 9270,
      "bour": 9271,
      "ĠMake": 9272,
      "ĠLatin": 9273,
      "Ġerrors": 9274,
      "Ġabsolute": 9275,
      "label": 9276,
      "Ġexpert": 9277,
      "Ġlesson": 9278,
      "Ġsports": 9279,
      "Ġideal": 9280,
      "Ġchief": 9281,
      "Ġsouthern": 9282,
      "Ġunless": 9283,
      "Ġmaybe": 9284,
      "Ġoperating": 9285,
      "Ġjobs": 9286,
      "ircraft": 9287,
      "/t": 9288,
      "Ġannounced": 9289,
      "ĠãĢĬ": 9290,
      "åĬŀçĲĨ": 9291,
      "Ġdisorders": 9292,
      "MD": 9293,
      "è¾Ĩ": 9294,
      "IND": 9295,
      "amil": 9296,
      "ä¹ı": 9297,
      "ycl": 9298,
      "People": 9299,
      "iox": 9300,
      "åĩºåı£": 9301,
      "ï¼Įè¢«": 9302,
      "æµª": 9303,
      "Ġcontinues": 9304,
      "Ġselection": 9305,
      "å¤§éĩı": 9306,
      "acts": 9307,
      "Ġallowing": 9308,
      ".[": 9309,
      "èī¾": 9310,
      "RL": 9311,
      "_A": 9312,
      "Ġstock": 9313,
      "é¡µ": 9314,
      "Ġbeautiful": 9315,
      "EST": 9316,
      "Ġnorthern": 9317,
      "Ġwriter": 9318,
      "cal": 9319,
      "dr": 9320,
      "Ġconsists": 9321,
      "Ġoccurred": 9322,
      "Ġpurposes": 9323,
      "åĽ½åĬ¡éĻ¢": 9324,
      "burg": 9325,
      "XX": 9326,
      "éĥ½æľī": 9327,
      "æĬķåħ¥": 9328,
      "illa": 9329,
      "ĠAnn": 9330,
      "cers": 9331,
      "osa": 9332,
      "çĲĥåĵ¡": 9333,
      "FL": 9334,
      ".)Ċ": 9335,
      "According": 9336,
      "çī¹å¾ģ": 9337,
      "Ġcomfort": 9338,
      "').": 9339,
      "Ġdensity": 9340,
      "ĠCanadian": 9341,
      "Ġemp": 9342,
      "æĨ": 9343,
      "ĠLess": 9344,
      "afe": 9345,
      "then": 9346,
      "ĠCommission": 9347,
      "Ġmanner": 9348,
      "Ġinflamm": 9349,
      "ĠGood": 9350,
      "è¾¦": 9351,
      "Are": 9352,
      "é³": 9353,
      "æĥ¯": 9354,
      "æľĢä½³": 9355,
      "Ġpromote": 9356,
      "]);Ċ": 9357,
      "inition": 9358,
      "kit": 9359,
      "Ġcars": 9360,
      "ĠTH": 9361,
      "åħ¬è·¯": 9362,
      "osh": 9363,
      "çī¹çĤ¹": 9364,
      "ĠRussian": 9365,
      "ĠCup": 9366,
      "ĠJun": 9367,
      "Ġextract": 9368,
      "éĿĴå¹´": 9369,
      "è¾ħ": 9370,
      "ounter": 9371,
      "ĠRob": 9372,
      "rey": 9373,
      "æĹħæ¸¸": 9374,
      "å¹ķ": 9375,
      "æ®ĸ": 9376,
      "ICENSE": 9377,
      "ĠElect": 9378,
      "github": 9379,
      "ASA": 9380,
      "ocratic": 9381,
      "Ġmac": 9382,
      "ç£ģ": 9383,
      "Ġflood": 9384,
      "Ġhypothes": 9385,
      "othe": 9386,
      "çĬ¯ç½ª": 9387,
      "asp": 9388,
      "Ġpros": 9389,
      "é©¶": 9390,
      "ĠLike": 9391,
      "liament": 9392,
      "QU": 9393,
      "è¿ĲèĲ¥": 9394,
      "éŃļ": 9395,
      "ato": 9396,
      "rip": 9397,
      "çĶŁçļĦ": 9398,
      "ĠIslam": 9399,
      "Ġfirm": 9400,
      "amespace": 9401,
      "rition": 9402,
      "éĻ·": 9403,
      "æ³¥": 9404,
      "äºĭæķħ": 9405,
      "ĠCLASS": 9406,
      "å¯º": 9407,
      "åĨľæ°ĳ": 9408,
      "æ°§åĮĸ": 9409,
      "claim": 9410,
      ".log": 9411,
      "ä¸Ńåįİäººæ°ĳåħ±åĴĮåĽ½": 9412,
      "hedule": 9413,
      "Eng": 9414,
      "æ³¨åĨĮ": 9415,
      "Ġcopyright": 9416,
      "ican": 9417,
      "Ġlose": 9418,
      "éĥİ": 9419,
      "Ġgreatest": 9420,
      "åĽ¢éĺŁ": 9421,
      "éº»": 9422,
      "alls": 9423,
      "Ġmainly": 9424,
      ".create": 9425,
      "-on": 9426,
      "Ġgender": 9427,
      "ç´į": 9428,
      "å¹¿æ³Ľ": 9429,
      "Null": 9430,
      "Ġargs": 9431,
      "Ġpref": 9432,
      "æĶ¹åĸĦ": 9433,
      "ĠMedical": 9434,
      "Ġoutcomes": 9435,
      "å¤ļæķ°": 9436,
      "çī©çĲĨ": 9437,
      "VAL": 9438,
      "ingly": 9439,
      "Ġtechnologies": 9440,
      "show": 9441,
      "æĺĮ": 9442,
      "ï¼ĮåĲĮ": 9443,
      "ĠDev": 9444,
      "Ġdogs": 9445,
      "åĮħåĲ«": 9446,
      "Ġelev": 9447,
      "è®°èĢħ": 9448,
      "She": 9449,
      "inn": 9450,
      "Example": 9451,
      "Ġviolence": 9452,
      "]\\].": 9453,
      "arant": 9454,
      "inations": 9455,
      "ĠOnly": 9456,
      "-R": 9457,
      "Ġflex": 9458,
      "æľĢåĲİ": 9459,
      "<T": 9460,
      "ĠDu": 9461,
      "isters": 9462,
      "eless": 9463,
      "å±¥": 9464,
      "é«ĺçļĦ": 9465,
      "control": 9466,
      "æĢĢ": 9467,
      "gu": 9468,
      "Exp": 9469,
      "è§Ĵèī²": 9470,
      "Ġdivis": 9471,
      "ä¸¥æł¼": 9472,
      "Ġrepeated": 9473,
      "Ġeggs": 9474,
      "Ġsounds": 9475,
      "ded": 9476,
      "ansion": 9477,
      ",æľī": 9478,
      "Ġenable": 9479,
      "ĠCatholic": 9480,
      "Ġexplained": 9481,
      "Ġstars": 9482,
      "uated": 9483,
      "ĠAv": 9484,
      "è°¢": 9485,
      "Ġderived": 9486,
      ".prot": 9487,
      "Ġvoltage": 9488,
      "Ġwealth": 9489,
      "ella": 9490,
      "DL": 9491,
      "ometric": 9492,
      "ellent": 9493,
      "èģĸ": 9494,
      "ĠPRO": 9495,
      "icago": 9496,
      "ups": 9497,
      "Ġdriver": 9498,
      "ĠEmp": 9499,
      "Ġimmig": 9500,
      "_ch": 9501,
      "parse": 9502,
      "Ġsector": 9503,
      "çļĦå½±åĵį": 9504,
      "æĿ¥èĩª": 9505,
      "å¾Ģå¾Ģ": 9506,
      "Ġimproved": 9507,
      "Ġoriginally": 9508,
      ".in": 9509,
      "imens": 9510,
      "å¾Ĵ": 9511,
      "Ġassume": 9512,
      "FO": 9513,
      "Ġreligion": 9514,
      "æĭ¥æľī": 9515,
      "æŃĲ": 9516,
      "ĠWITHOUT": 9517,
      "ĠStudents": 9518,
      "åĳĺå·¥": 9519,
      "ĠAtl": 9520,
      "Ġinhib": 9521,
      "Ġhelpful": 9522,
      "Ġtechnical": 9523,
      "ç«¹": 9524,
      "åĬ¨çī©": 9525,
      "icial": 9526,
      "å®īæİĴ": 9527,
      "rypt": 9528,
      "éŃĶ": 9529,
      "Ġbegins": 9530,
      "Ġdesc": 9531,
      "Ġdefe": 9532,
      "æĮĩæłĩ": 9533,
      "ä¾Ŀæį®": 9534,
      "-ch": 9535,
      "Ġgrav": 9536,
      "Ġhighlight": 9537,
      "ĠLibrary": 9538,
      "ä¿Ĺ": 9539,
      "{align": 9540,
      "ĠâĨĴ": 9541,
      "Ġoxygen": 9542,
      "Ġreducing": 9543,
      "Most": 9544,
      "Ġfert": 9545,
      "é©¾": 9546,
      "ĠJose": 9547,
      "ĠBritain": 9548,
      "ĠValue": 9549,
      "ĠTer": 9550,
      "inity": 9551,
      "å¹²éĥ¨": 9552,
      "åľ°çļĦ": 9553,
      "è¶ĬæĿ¥": 9554,
      "ĠMo": 9555,
      "Ġinject": 9556,
      "ĠOrgan": 9557,
      "Listener": 9558,
      "åĵ²": 9559,
[...]
